/**
  ******************************************************************************
  * @file    network_ecblobs.h
  * @brief   NN Code autogenerated DO NOT MODIFY IT
  ******************************************************************************
  * @attention
  *
  * Copyright (c) 2024 STMicroelectronics.
  * All rights reserved.
  *
  * This software is licensed under terms that can be found in the LICENSE file
  * in the root directory of this software component.
  * If no LICENSE file comes with this software, it is provided AS-IS.
  *
  ******************************************************************************
  */


#ifdef __cplusplus
extern "C" {
#endif

#include "ll_aton_caches_interface.h"

#include <string.h>

#if !defined(ECBLOB_CONST_SECTION)
#define ECBLOB_CONST_SECTION /* Empty */
#endif
#if !defined(ECBLOB_RUNTIME_SECTION)
#define ECBLOB_RUNTIME_SECTION /* Empty */
#endif

ECBLOB_CONST_SECTION
// aligned to the cache line size (equal to 64 bytes)
__attribute__((aligned(64)))
static const uint64_t _ec_blob_network_1[21584] =
{
  0x0000a893ca057a7aUL, 0x0000005d0000003dUL, 0x5c00004200802241UL, 0x1500006008000000UL,
  0x000700005c027c00UL, 0x000040005c070043UL, 0x5c0c00430000ffe0UL, 0x1041204200000000UL,
  0x6000004200802261UL, 0x1500000008000000UL, 0x0007000060027c00UL, 0x0000400060070043UL,
  0x600c004300000020UL, 0x1041104100000000UL, 0x30007c00008020e1UL, 0x3002004300080104UL,
  0x000a8c0034100000UL, 0x00000000300500c3UL, 0x00000000000a8c00UL, 0x0000002400000000UL,
  0x300c004200100000UL, 0x0000000700000006UL, 0x00000001300d0043UL, 0x30110043341a8c3fUL,
  0x0000000000000000UL, 0x14007c0000802001UL, 0x140200430008010cUL, 0x000a8c00341a8c00UL,
  0x00000000140500c3UL, 0x00000000000a8c00UL, 0x0000002400000000UL, 0x140c004200100000UL,
  0x0000000700000006UL, 0x00000001140d0043UL, 0x141100433425183fUL, 0x0000000000000000UL,
  0x0000000210007c00UL, 0x0000006410000424UL, 0x10007c0000000000UL, 0x10007bc440000000UL,
  0x0000000000000064UL, 0x0000000110007c00UL, 0x0000002710027c00UL, 0x0000000f101e7c00UL,
  0x0000002510207c00UL, 0x5c00200114002001UL, 0x3000200160002001UL, 0x0000006414007fe4UL,
  0x10027c0000000000UL, 0x101e7c0000000000UL, 0x10207c0000000000UL, 0x14007c0000000000UL,
  0x1400042400000002UL, 0x0000000000000064UL, 0x4000000014007c00UL, 0x0000006414007bc4UL,
  0x0080000100000000UL, 0x080000025c007c00UL, 0x000000645c000424UL, 0x5c007c0000000000UL,
  0x5c007bc448000000UL, 0x0000000000000064UL, 0x60007c0000800241UL, 0x6000042408000002UL,
  0x0000000000000064UL, 0x4800000060007c00UL, 0x0000006460007bc4UL, 0x0080026100000000UL,
  0x0000000230007c00UL, 0x0000006430000424UL, 0x30007c0000000000UL, 0x30007bc440000000UL,
  0x0000000000000064UL, 0x0000007d008000e1UL, 0x3c007c0000802141UL, 0x3c0200e300100034UL,
  0x0000224406030303UL, 0x01e005a010634303UL, 0x01df0000059f0000UL, 0x3c0a7c0000000001UL,
  0x3c0d7c0000000000UL, 0x0080228100000000UL, 0x0800000064000042UL, 0x64020123156000fcUL,
  0x00000000000a0000UL, 0x000545ff00000005UL, 0x00000000000a8bffUL, 0x07d403fb00000000UL,
  0x640c004300000001UL, 0x2042204200000000UL, 0x00000001640b7c00UL, 0xfee9316f65000303UL,
  0xfb4d7e040000b889UL, 0xf93531b700002f44UL, 0xf9925c620000f65eUL, 0xf5163c2e00007417UL,
  0xfb09568d0000bfc8UL, 0xf1461481000046f1UL, 0xf5bb450600000414UL, 0xfa32393900009948UL,
  0xf78d18330000d97bUL, 0xf99836f00000fb8bUL, 0xf17d260300002bbaUL, 0x008022a10000eee6UL,
  0x0800000068000042UL, 0x68027c0015000000UL, 0x6807004300070000UL, 0x0000002000004000UL,
  0x00000000680c0043UL, 0x0080206110411041UL, 0x0008010020007c00UL, 0x341a8c0020020043UL,
  0x200500c3000a8c00UL, 0x000a8c0000000000UL, 0x0000000000000001UL, 0x0010000000000024UL,
  0x00000006200c0042UL, 0x200d004300000007UL, 0x3425183f00000002UL, 0x0000000020110043UL,
  0x008020c100000000UL, 0x000801842c007c00UL, 0x704a46802c020043UL, 0x2c0500c300000144UL,
  0x0000000000000000UL, 0x0000000000000000UL, 0x0010000000000024UL, 0x000000062c0c0042UL,
  0x2c0d004300000007UL, 0x704a480700000001UL, 0x000000002c110043UL, 0x008020a100000008UL,
  0x0008010828007c00UL, 0x3425180028020043UL, 0x280500c300054600UL, 0x0005460000000000UL,
  0x0000000000000000UL, 0x0010000000000024UL, 0x00000006280c0042UL, 0x280d004300000007UL,
  0x342fa43f00000002UL, 0x0000000028110043UL, 0x10007c0000000000UL, 0x1000042400000002UL,
  0x0000000000000064UL, 0x4000000010007c00UL, 0x0000006410007bc4UL, 0x10007c0000000000UL,
  0x10077c0000000001UL, 0x100c00430000002bUL, 0x0000000d00000007UL, 0x0000001510227c00UL,
  0x0000002910247c00UL, 0x3c007c0028002001UL, 0x6400200100100035UL, 0x2000200168002001UL,
  0x28007fe42c002001UL, 0x0000000000000064UL, 0x0000000010077c00UL, 0x00000000100c0043UL,
  0x10227c0000000000UL, 0x10247c0000000000UL, 0x28007c0000000000UL, 0x2800042400000002UL,
  0x0000000000000064UL, 0x4000000028007c00UL, 0x0000006428007bc4UL, 0x008000a100000000UL,
  0x000000023c007c00UL, 0x000000643c000424UL, 0x3c007c0000000000UL, 0x3c007bc440000000UL,
  0x0000000000000064UL, 0x64007c0000800141UL, 0x6400042408000002UL, 0x0000000000000064UL,
  0x4800000064007c00UL, 0x0000006464007bc4UL, 0x0080028100000000UL, 0x0800000268007c00UL,
  0x0000006468000424UL, 0x68007c0000000000UL, 0x68007bc448000000UL, 0x0000000000000064UL,
  0x20007c00008002a1UL, 0x2000042400000002UL, 0x0000000000000064UL, 0x4000000020007c00UL,
  0x0000006420007bc4UL, 0x0080006100000000UL, 0x000000022c007c00UL, 0x000000642c000424UL,
  0x2c007c0000000000UL, 0x2c007bc440000000UL, 0x0000000000000064UL, 0x0000009d008000c1UL,
  0x40007c0000802161UL, 0x400200e300100034UL, 0x0000115508060303UL, 0x00f005a010774004UL,
  0x00ef0000059f0000UL, 0x400a7c0000070010UL, 0x400d7c0000000000UL, 0x0080218100000000UL,
  0x0010002044007c00UL, 0x08060303440200e3UL, 0x1063440000001155UL, 0x059f000000f005a0UL,
  0x000f081000ef0000UL, 0x00000000440a7c00UL, 0x00000000440d7c00UL, 0x5c00004200802241UL,
  0x156000fc08000000UL, 0x000980005c020123UL, 0x0000000700000000UL, 0x000e0fff000707ffUL,
  0x0000000000000000UL, 0x0000000107c403f9UL, 0x000000005c0c0043UL, 0x5c0b7c0020422042UL,
  0x5d00040300000001UL, 0x0000b3e5fd962bbfUL, 0x0000ad39fd6c4371UL, 0x00004151fcd42b01UL,
  0x0000fe07fcab65a4UL, 0x0000f561fd1735deUL, 0x0000c88ffc772f62UL, 0x0000c83afcdb2870UL,
  0x00001129fbeb26ecUL, 0x0000afa3fdd46fa3UL, 0x00005441fc60499dUL, 0x0000433cfd13196dUL,
  0x00009584fcde27ffUL, 0x00009fcdfd3a15baUL, 0x000093abfd131c66UL, 0x0000476cfbbb2db6UL,
  0x0000fddbfd481642UL, 0x6000004200802261UL, 0x1500000008000000UL, 0x0007000060027c00UL,
  0x0000400060070043UL, 0x600c004300000020UL, 0x1041104100000000UL, 0x20007c0000802061UL,
  0x2002004300080100UL, 0x0005460034251800UL, 0x00000000200500c3UL, 0x00000001000a8c00UL,
  0x0000002400000000UL, 0x200c004200100000UL, 0x0000000700000006UL, 0x00000002200d0043UL,
  0x20110043342fa43fUL, 0x0000000000000000UL, 0x28007c00008020a1UL, 0x2802004300080184UL,
  0x000006c070497590UL, 0x00000000280500c3UL, 0x0000000000000000UL, 0x0000002400000000UL,
  0x280c004200100000UL, 0x0000000700000006UL, 0x00000001280d0043UL, 0x2811004370497c8fUL,
  0x0000000800000000UL, 0x18007c0000802021UL, 0x1802004300080100UL, 0x00054600342a5e00UL,
  0x00000000180500c3UL, 0x00000001000a8c00UL, 0x0000002400000000UL, 0x180c004200100000UL,
  0x0000000700000006UL, 0x00000002180d0043UL, 0x18110043342fa43fUL, 0x0000000000000000UL,
  0x38007c0000802121UL, 0x3802012300080008UL, 0x00f000f034100000UL, 0x00000f0000100008UL,
  0x0000000200000008UL, 0x00000024000e1000UL, 0x380c004200100000UL, 0x0000000700000006UL,
  0x00000002380d0043UL, 0x38110043341e103fUL, 0x0000000000000000UL, 0x0000000210007c00UL,
  0x0000006410000424UL, 0x10007c0000000000UL, 0x10007bc440000000UL, 0x0000000000000064UL,
  0x0000000110007c00UL, 0x00000027100b7c00UL, 0x00000007100f0043UL, 0x101200630000000bUL,
  0x0000000b00000003UL, 0x101e7c0000000017UL, 0x10207c0000000019UL, 0x3800200100000025UL,
  0x0010003540007c00UL, 0x0010002144007c00UL, 0x600020015c002001UL, 0x2000200118002001UL,
  0x38007fe428002001UL, 0x0000000000000064UL, 0x00000000100b7c00UL, 0x00000000100f0043UL,
  0x1012006300000000UL, 0x0000000000000000UL, 0x101e7c0000000000UL, 0x10207c0000000000UL,
  0x38007c0000000000UL, 0x3800042400000002UL, 0x0000000000000064UL, 0x4000000038007c00UL,
  0x0000006438007bc4UL, 0x0080012100000000UL, 0x0000000240007c00UL, 0x0000006440000424UL,
  0x40007c0000000000UL, 0x40007bc440000000UL, 0x0000000000000064UL, 0x44007c0000800161UL,
  0x4400042400000002UL, 0x0000000000000064UL, 0x4000000044007c00UL, 0x0000006444007bc4UL,
  0x0080018100000000UL, 0x080000025c007c00UL, 0x000000645c000424UL, 0x5c007c0000000000UL,
  0x5c007bc448000000UL, 0x0000000000000064UL, 0x60007c0000800241UL, 0x6000042408000002UL,
  0x0000000000000064UL, 0x4800000060007c00UL, 0x0000006460007bc4UL, 0x0080026100000000UL,
  0x0000000218007c00UL, 0x0000006418000424UL, 0x18007c0000000000UL, 0x18007bc440000000UL,
  0x0000000000000064UL, 0x20007c0000800021UL, 0x2000042400000002UL, 0x0000000000000064UL,
  0x4000000020007c00UL, 0x0000006420007bc4UL, 0x0080006100000000UL, 0x0000000228007c00UL,
  0x0000006428000424UL, 0x28007c0000000000UL, 0x28007bc440000000UL, 0x0000000000000064UL,
  0x000000bd008000a1UL, 0x48007c00008021a1UL, 0x480200e320100034UL, 0x0000220004040303UL,
  0x00f003c010634101UL, 0x00ef000003bf0000UL, 0x480a7c0000000001UL, 0x480d7c0001000400UL,
  0x0080228100000000UL, 0x0800000064000042UL, 0x64020123156000fcUL, 0x0000000000098000UL,
  0x0000e0ff00000003UL, 0x00000000000383ffUL, 0x07c403fd00000000UL, 0x640c004300000001UL,
  0x2042204200000000UL, 0x00000001640b7c00UL, 0xfe013f7c65000403UL, 0xfc0f14ec00001501UL,
  0xfbe32862000013f0UL, 0xfc0c2fa700005ea0UL, 0xfd2c34c70000a861UL, 0xfe3f2af90000ff32UL,
  0xfbee27590000435aUL, 0xfbe9305e0000045dUL, 0xfc15352d00003bc0UL, 0xfd252b1f00002fbcUL,
  0xfe1470480000c64aUL, 0xfbde38260000acd3UL, 0xfd0b56440000e177UL, 0xfd5612220000b990UL,
  0xfbb222fd0000249bUL, 0xff3856c50000fb36UL, 0x008022a10000a2eaUL, 0x0800000068000042UL,
  0x68027c0015000000UL, 0x6807004300070000UL, 0x0000002000004000UL, 0x00000000680c0043UL,
  0x0080210110411041UL, 0x0088020034007c00UL, 0x3410000034020123UL, 0x0010000200f000f0UL,
  0x0000000000000f00UL, 0x0000000400000001UL, 0x0010000000000024UL, 0x00000006340c0042UL,
  0x340d004300000007UL, 0x341e103f00000004UL, 0x0000000034110043UL, 0x0080200100000000UL,
  0x0008018414007c00UL, 0x704a376014020043UL, 0x140500c300000240UL, 0x0000000000000000UL,
  0x0000000000000000UL, 0x0010000000000024UL, 0x00000006140c0042UL, 0x140d004300000007UL,
  0x704a39df00000001UL, 0x0000000014110043UL, 0x0080206100000008UL, 0x0008000820007c00UL,
  0x342e000020020123UL, 0x0010000400780078UL, 0x0000000400000780UL, 0x0003840000000004UL,
  0x0010000000000024UL, 0x00000006200c0042UL, 0x200d004300000007UL, 0x3431843f00000004UL,
  0x0000000020110043UL, 0x10007c0000000000UL, 0x1000042400000002UL, 0x0000000000000064UL,
  0x4000000010007c00UL, 0x0000006410007bc4UL, 0x10007c0000000000UL, 0x10057c0000000001UL,
  0x101500430000002bUL, 0x0000000100000011UL, 0x0000001b10227c00UL, 0x0000002910247c00UL,
  0x48007c0020002001UL, 0x6400200120100035UL, 0x1400200168002001UL, 0x20007fe434002001UL,
  0x0000000000000064UL, 0x0000000010057c00UL, 0x0000000010150043UL, 0x10227c0000000000UL,
  0x10247c0000000000UL, 0x20007c0000000000UL, 0x2000042400000002UL, 0x0000000000000064UL,
  0x4000000020007c00UL, 0x0000006420007bc4UL, 0x0080006100000000UL, 0x0000000248007c00UL,
  0x0000006448000424UL, 0x48007c0000000000UL, 0x48007bc440000000UL, 0x0000000000000064UL,
  0x64007c00008001a1UL, 0x6400042408000002UL, 0x0000000000000064UL, 0x4800000064007c00UL,
  0x0000006464007bc4UL, 0x0080028100000000UL, 0x0800000268007c00UL, 0x0000006468000424UL,
  0x68007c0000000000UL, 0x68007bc448000000UL, 0x0000000000000064UL, 0x14007c00008002a1UL,
  0x1400042400000002UL, 0x0000000000000064UL, 0x4000000014007c00UL, 0x0000006414007bc4UL,
  0x0080000100000000UL, 0x0000000234007c00UL, 0x0000006434000424UL, 0x34007c0000000000UL,
  0x34007bc440000000UL, 0x0000000000000064UL, 0x000000dd00800101UL, 0x3c007c0000802141UL,
  0x3c0200e300100034UL, 0x0000110010100101UL, 0x0078078010634303UL, 0x00770000077f0000UL,
  0x3c0a7c0000000001UL, 0x3c0d7c0000000000UL, 0x0080224100000000UL, 0x080000005c000042UL,
  0x5c020123156000fcUL, 0x0000000000088000UL, 0x000383ff0000000fUL, 0x00000000000707ffUL,
  0x078403f100000000UL, 0x5c0c004300000001UL, 0x2042204200000000UL, 0x000000015c0b7c00UL,
  0xff2e344a5d000803UL, 0xfefa1aa2000070feUL, 0xff4318600000d9bdUL, 0xffb71755000099e2UL,
  0xffef285b000021c3UL, 0xff7615ad00001e0eUL, 0xfe851fc900009d90UL, 0xff801aba00009b4bUL,
  0xff1f20dd00003d7eUL, 0xfebf20900000a06eUL, 0x00b51e980000cbf8UL, 0xfde91e0b00006a28UL,
  0xfe5f31580000835cUL, 0xfdfd3ecf0000a2a0UL, 0xffe4221800006fb8UL, 0xfe4225f00000b467UL,
  0xfe0a1797000039c6UL, 0xfe8f11b50000f3adUL, 0xff991f2900002f66UL, 0xffbb2a3d0000ca43UL,
  0xff76205400007c92UL, 0xfe751efb0000fd13UL, 0xfe7424a60000c2c0UL, 0xfe4321c000003217UL,
  0xffec1bba0000f8acUL, 0xfe5525ee00008e89UL, 0xffcf28cf00007898UL, 0x00792e2400000e08UL,
  0x010942e80000bcffUL, 0xffc3257700006e00UL, 0xfea0204f0000e57cUL, 0x0011293100003195UL,
  0x0080226100001a88UL, 0x0800000060000042UL, 0x60027c0015000000UL, 0x6007004300070000UL,
  0x0000002000004000UL, 0x00000000600c0043UL, 0x0080228110411041UL, 0x0800000064000042UL,
  0x64027c0015000000UL, 0x6407004300070000UL, 0x0000002000004000UL, 0x00000000640c0043UL,
  0x0080210110411041UL, 0x0008010034007c00UL, 0x342e000034020043UL, 0x340500c300038400UL,
  0x0003840000000000UL, 0x0000000000000001UL, 0x0010000000000024UL, 0x00000006340c0042UL,
  0x340d004300000007UL, 0x3431843f00000002UL, 0x0000000034110043UL, 0x0080208100000000UL,
  0x0008018424007c00UL, 0x704a448024020043UL, 0x240500c300000200UL, 0x0000000000000000UL,
  0x0000000000000000UL, 0x0010000000000024UL, 0x00000006240c0042UL, 0x240d004300000007UL,
  0x704a46bf00000001UL, 0x0000000024110043UL, 0x0080206100000008UL, 0x0008000820007c00UL,
  0x341e100020020123UL, 0x0020001000780078UL, 0x0000001000000f00UL, 0x0007080000000002UL,
  0x0010000000000024UL, 0x00000006200c0042UL, 0x200d004300000007UL, 0x3425183f00000002UL,
  0x0000000020110043UL, 0x008020e100000000UL, 0x0008000830007c00UL, 0x3417080030020123UL,
  0x0020001000780078UL, 0x0000001000000f00UL, 0x0007080000000002UL, 0x0010000000000024UL,
  0x00000006300c0042UL, 0x300d004300000007UL, 0x341e103f00000002UL, 0x0000000030110043UL,
  0x10007c0000000000UL, 0x1000042400000002UL, 0x0000000000000064UL, 0x4000000010007c00UL,
  0x0000006410007bc4UL, 0x10007c0000000000UL, 0x10057c0000000001UL, 0x10097c0000000027UL,
  0x100c004300000029UL, 0x0000000900000011UL, 0x00000015101e7c00UL, 0x0000002510207c00UL,
  0x0000002510227c00UL, 0x3000200120002001UL, 0x001000353c007c00UL, 0x600020015c002001UL,
  0x2400200164002001UL, 0x20007fe434002001UL, 0x0000000000000064UL, 0x0000006430007fe4UL,
  0x10057c0000000000UL, 0x10097c0000000000UL, 0x100c004300000000UL, 0x0000000000000000UL,
  0x00000000101e7c00UL, 0x0000000010207c00UL, 0x0000000010227c00UL, 0x0000000220007c00UL,
  0x0000006420000424UL, 0x20007c0000000000UL, 0x20007bc440000000UL, 0x0000000000000064UL,
  0x30007c0000800061UL, 0x3000042400000002UL, 0x0000000000000064UL, 0x4000000030007c00UL,
  0x0000006430007bc4UL, 0x008000e100000000UL, 0x000000023c007c00UL, 0x000000643c000424UL,
  0x3c007c0000000000UL, 0x3c007bc440000000UL, 0x0000000000000064UL, 0x5c007c0000800141UL,
  0x5c00042408000002UL, 0x0000000000000064UL, 0x480000005c007c00UL, 0x000000645c007bc4UL,
  0x0080024100000000UL, 0x0800000260007c00UL, 0x0000006460000424UL, 0x60007c0000000000UL,
  0x60007bc448000000UL, 0x0000000000000064UL, 0x64007c0000800261UL, 0x6400042408000002UL,
  0x0000000000000064UL, 0x4800000064007c00UL, 0x0000006464007bc4UL, 0x0080028100000000UL,
  0x0000000224007c00UL, 0x0000006424000424UL, 0x24007c0000000000UL, 0x24007bc440000000UL,
  0x0000000000000064UL, 0x34007c0000800081UL, 0x3400042400000002UL, 0x0000000000000064UL,
  0x4000000034007c00UL, 0x0000006434007bc4UL, 0x0080010100000000UL, 0x00802161000000fdUL,
  0x10d0003440007c00UL, 0x10200101400200e3UL, 0x10e3420200001100UL, 0x0eff000000780f00UL,
  0x0000000100770000UL, 0x00000000400a7c00UL, 0x00000000400d7c00UL, 0x68000042008022a1UL,
  0x156000fc08000000UL, 0x000a000068020123UL, 0x0000000f00000000UL, 0x000383ff000383ffUL,
  0x0000000000000000UL, 0x0000000107c403f1UL, 0x00000000680c0043UL, 0x680b7c0020422042UL,
  0x6900040300000001UL, 0x00007119f8722f24UL, 0x0000a98dfae430aeUL, 0x000090d5fc73304dUL,
  0x0000e65ef89f3030UL, 0x0000a89df787665aUL, 0x0000dd63f64b2c6dUL, 0x0000effef6902f4cUL,
  0x00004e34f879122cUL, 0x0000a76cff8179efUL, 0x0000fd67fbe52fb6UL, 0x000038bef7ad2b45UL,
  0x00001db8f8ca4a21UL, 0x00000dcefccd3c6aUL, 0x00000999faee336dUL, 0x0000c9eef8ea2cc1UL,
  0x0000f0bbf8164c85UL, 0x5c00004200802241UL, 0x1500000008000000UL, 0x000700005c027c00UL,
  0x000040005c070043UL, 0x5c0c004300000020UL, 0x1041104100000000UL, 0x44007c0000802181UL,
  0x440200e300100034UL, 0x0000110010100101UL, 0x0078078010634303UL, 0x00770000077f0000UL,
  0x440a7c0000000001UL, 0x440d7c0000000000UL, 0x0080226100000000UL, 0x0800000060000042UL,
  0x60020123156000fcUL, 0x0000000000090000UL, 0x000383ff0000000fUL, 0x00000000000383ffUL,
  0x07c403f100000000UL, 0x600c004300000001UL, 0x2042204200000000UL, 0x00000001600b7c00UL,
  0xfe972d4e61000403UL, 0xfdda1a990000ccf8UL, 0xfd242f880000ffa1UL, 0xfea705ac0000d8d4UL,
  0xff4152e60000df9eUL, 0xfdb3159a0000d7a0UL, 0xfdf0290b0000943eUL, 0xfef712400000ca10UL,
  0xffe932a20000b2a4UL, 0xfe6f23d100008fb6UL, 0xfe422fab00008f5bUL, 0xfda327c70000de15UL,
  0xfe452c1a000060c7UL, 0xfeae074100007ce7UL, 0xfd6627c700002dbdUL, 0xfe1d2fdb00009b14UL,
  0x0080228100002330UL, 0x0800000064000042UL, 0x64027c0015000000UL, 0x6407004300070000UL,
  0x0000002000004000UL, 0x00000000640c0043UL, 0x008021a110411041UL, 0x10d0003448007c00UL,
  0x10200101480200e3UL, 0x10e3420200001100UL, 0x0eff000000780f00UL, 0x0000000100770000UL,
  0x00000000480a7c00UL, 0x00000000480d7c00UL, 0x28007c00008020a1UL, 0x2802004308880304UL,
  0x00025800341e1000UL, 0x00000000280500c3UL, 0x0000000100000000UL, 0x0000002400070800UL,
  0x280c004200100000UL, 0x0000000700000006UL, 0x00000001280d0043UL, 0x281100433425183fUL,
  0x0000000000000000UL, 0x18007c0000802021UL, 0x1802004308880184UL, 0x000000ab704a4270UL,
  0x00000000180500c3UL, 0x0000000000000000UL, 0x0000002400000000UL, 0x180c004200100000UL,
  0x0000000700000006UL, 0x00000001180d0043UL, 0x18110043704a44b7UL, 0x0000000800000000UL,
  0x24007c0000802081UL, 0x2402004300080184UL, 0x00000100704a47d0UL, 0x00000000240500c3UL,
  0x0000000000000000UL, 0x0000002400000000UL, 0x240c004200100000UL, 0x0000000700000006UL,
  0x00000001240d0043UL, 0x24110043704a490fUL, 0x0000000800000000UL, 0x1c007c0000802041UL,
  0x1c02004308880304UL, 0x0002580034170800UL, 0x000000001c0500c3UL, 0x0000000100000000UL,
  0x0000002400070800UL, 0x1c0c004200100000UL, 0x0000000700000006UL, 0x000000011c0d0043UL,
  0x1c110043341e103fUL, 0x0000000000000000UL, 0x30007c00008020e1UL, 0x3002004308880184UL,
  0x000000ab704a4060UL, 0x00000000300500c3UL, 0x0000000000000000UL, 0x0000002400000000UL,
  0x300c004200100000UL, 0x0000000700000006UL, 0x00000001300d0043UL, 0x30110043704a42a7UL,
  0x0000000800000000UL, 0x34007c0000802101UL, 0x340200430008010cUL, 0x00038400342e0000UL,
  0x00000000340500c3UL, 0x0000000000038400UL, 0x0000002400000000UL, 0x340c004200100000UL,
  0x0000000700000006UL, 0x00000001340d0043UL, 0x341100433431843fUL, 0x0000000000000000UL,
  0x14007c0000802001UL, 0x1402012300080008UL, 0x0078000434270000UL, 0x00000004e1000004UL,
  0x00000078000001e0UL, 0x0000002400038400UL, 0x140c004200100000UL, 0x0000000700000006UL,
  0x00000078140d0043UL, 0x14110043342a843fUL, 0x0000000000000000UL, 0x20007c0000802061UL,
  0x200200430088010cUL, 0x0003840034100000UL, 0x00000000200500c3UL, 0x0000000000070800UL,
  0x0000002400000000UL, 0x200c004200100000UL, 0x0000000700000006UL, 0x00000001200d0043UL,
  0x201100433417083fUL, 0x0000000000000000UL, 0x0000000210007c00UL, 0x0000006410000424UL,
  0x10007c0000000000UL, 0x10007bc440000000UL, 0x0000000000000064UL, 0x0000000110007c00UL,
  0x0000002910027c00UL, 0x0000001b10057c00UL, 0x0000002b100a7c00UL, 0x0000000b100f0043UL,
  0x1012004300000003UL, 0x00000009ff240125UL, 0x0000000510150043UL, 0x101e7c000000000fUL,
  0x10207c000000002bUL, 0x10227c0000000019UL, 0x10247c0000000027UL, 0x1400200100000017UL,
  0x3400200120002001UL, 0x10d0003540007c00UL, 0x0010003544007c00UL, 0x10d0003548007c00UL,
  0x600020015c002001UL, 0x6800200164002001UL, 0x1c00200118002001UL, 0x2800200124002001UL,
  0x14007fe430002001UL, 0x0000000000000064UL, 0x0000006420007fe4UL, 0x34007fe400000000UL,
  0x0000000000000064UL, 0x0000000010027c00UL, 0x0000000010057c00UL, 0x00000000100a7c00UL,
  0x00000000100f0043UL, 0x1012004300000000UL, 0x0000000000000000UL, 0x0000000010150043UL,
  0x101e7c0000000000UL, 0x10207c0000000000UL, 0x10227c0000000000UL, 0x10247c0000000000UL,
  0x14007c0000000000UL, 0x1400042400000002UL, 0x0000000000000064UL, 0x4000000014007c00UL,
  0x0000006414007bc4UL, 0x0080000100000000UL, 0x0000000220007c00UL, 0x0000006420000424UL,
  0x20007c0000000000UL, 0x20007bc440000000UL, 0x0000000000000064UL, 0x34007c0000800061UL,
  0x3400042400000002UL, 0x0000000000000064UL, 0x4000000034007c00UL, 0x0000006434007bc4UL,
  0x0080010100000000UL, 0x0000000240007c00UL, 0x0000006440000424UL, 0x40007c0000000000UL,
  0x40007bc440000000UL, 0x0000000000000064UL, 0x44007c0000800161UL, 0x4400042400000002UL,
  0x0000000000000064UL, 0x4000000044007c00UL, 0x0000006444007bc4UL, 0x0080018100000000UL,
  0x0000000248007c00UL, 0x0000006448000424UL, 0x48007c0000000000UL, 0x48007bc440000000UL,
  0x0000000000000064UL, 0x5c007c00008001a1UL, 0x5c00042408000002UL, 0x0000000000000064UL,
  0x480000005c007c00UL, 0x000000645c007bc4UL, 0x0080024100000000UL, 0x0800000260007c00UL,
  0x0000006460000424UL, 0x60007c0000000000UL, 0x60007bc448000000UL, 0x0000000000000064UL,
  0x64007c0000800261UL, 0x6400042408000002UL, 0x0000000000000064UL, 0x4800000064007c00UL,
  0x0000006464007bc4UL, 0x0080028100000000UL, 0x0800000268007c00UL, 0x0000006468000424UL,
  0x68007c0000000000UL, 0x68007bc448000000UL, 0x0000000000000064UL, 0x18007c00008002a1UL,
  0x1800042400000002UL, 0x0000000000000064UL, 0x4000000018007c00UL, 0x0000006418007bc4UL,
  0x0080002100000000UL, 0x000000021c007c00UL, 0x000000641c000424UL, 0x1c007c0000000000UL,
  0x1c007bc440000000UL, 0x0000000000000064UL, 0x24007c0000800041UL, 0x2400042400000002UL,
  0x0000000000000064UL, 0x4000000024007c00UL, 0x0000006424007bc4UL, 0x0080008100000000UL,
  0x0000000228007c00UL, 0x0000006428000424UL, 0x28007c0000000000UL, 0x28007bc440000000UL,
  0x0000000000000064UL, 0x30007c00008000a1UL, 0x3000042400000002UL, 0x0000000000000064UL,
  0x4000000030007c00UL, 0x0000006430007bc4UL, 0x008000e100000000UL, 0x008022410000011dUL,
  0x080000005c000042UL, 0x5c020123356000fcUL, 0x00000000000a8000UL, 0x000383ff0000000fUL,
  0x00000000000383ffUL, 0x07c403f100000000UL, 0x5c0c006300000001UL, 0x2042204200000000UL,
  0x5c0b7c00ff80ffd2UL, 0x5d00040300000001UL, 0x000082f6f1c4333bUL, 0x000095a1f2de3e21UL,
  0x0000e2eaefdc3396UL, 0x00005d1ff10a4e44UL, 0x0000bf63f15236c1UL, 0x0000ba5df0b435dcUL,
  0x0000c829ef243fddUL, 0x0000bd4ef0563801UL, 0x0000963cf06f47ddUL, 0x0000b91bec4d5d0aUL,
  0x00000b2cf3ae45c5UL, 0x0000ab74f14f2b61UL, 0x0000e86ef0e44138UL, 0x0000f38cf0b3363bUL,
  0x0000e2d7f10d39bbUL, 0x00007e3cf154268eUL, 0x3c007c0000802141UL, 0x3c0200e300100034UL,
  0x0000115504040303UL, 0x007801e010634202UL, 0x0077000001df0000UL, 0x3c0a7c0000000001UL,
  0x3c0d7c0000000000UL, 0x0080226100000000UL, 0x0800000060000042UL, 0x60020123156000fcUL,
  0x0000000000090000UL, 0x0000e0ff00000003UL, 0x00000000000383ffUL, 0x07c403fd00000000UL,
  0x600c004300000001UL, 0x2042204200000000UL, 0x00000001600b7c00UL, 0xfdfd1f9c61000403UL,
  0xfde015ef000040b2UL, 0xfdea103c0000ebfaUL, 0xf8de40a10000e224UL, 0xfed810cf0000d2caUL,
  0xff6859620000aa7fUL, 0xfec015be000067ddUL, 0xfea83a390000157eUL, 0xfdd5166600005bfcUL,
  0xfe116f170000a6f6UL, 0xfdff2bca0000cab1UL, 0xfe4f2f320000ea1bUL, 0xfe080d840000bb3dUL,
  0xff1b2b050000107eUL, 0xfdfe1ed600009b39UL, 0xfee30a3500003932UL, 0x0080228100004e4eUL,
  0x0800000064000042UL, 0x64027c0015000000UL, 0x6407004300070000UL, 0x0000002000004000UL,
  0x00000000640c0043UL, 0x0080202110411041UL, 0x0088010418007c00UL, 0x3410000018020043UL,
  0x180500c300038400UL, 0x0007080000000000UL, 0x0000000000000000UL, 0x0010000000000024UL,
  0x00000006180c0042UL, 0x180d004300000007UL, 0x3417083f00000001UL, 0x0000000018110043UL,
  0x008020a100000000UL, 0x0008010028007c00UL, 0x3427000028020043UL, 0x280500c30000e100UL,
  0x0000000000000000UL, 0x0000e10000000001UL, 0x0010000000000024UL, 0x00000006280c0042UL,
  0x280d004300000007UL, 0x342a843f00000004UL, 0x0000000028110043UL, 0x0080210100000000UL,
  0x0008018434007c00UL, 0x704a39a034020043UL, 0x340500c300000240UL, 0x0000000000000000UL,
  0x0000000000000000UL, 0x0010000000000024UL, 0x00000006340c0042UL, 0x340d004300000007UL,
  0x704a3c1f00000001UL, 0x0000000034110043UL, 0x008020e100000008UL, 0x0008010c30007c00UL,
  0x341a8c0030020043UL, 0x300500c300038400UL, 0x0003840000000000UL, 0x0000000000000000UL,
  0x0010000000000024UL, 0x00000006300c0042UL, 0x300d004300000007UL, 0x341e103f00000001UL,
  0x0000000030110043UL, 0x0080204100000000UL, 0x000800081c007c00UL, 0x343500001c020123UL,
  0x0010000400780078UL, 0x0000000400000780UL, 0x0003840000000004UL, 0x0010000000000024UL,
  0x000000061c0c0042UL, 0x1c0d004300000007UL, 0x3438843f00000004UL, 0x000000001c110043UL,
  0x10007c0000000000UL, 0x1000042400000002UL, 0x0000000000000064UL, 0x4000000010007c00UL,
  0x0000006410007bc4UL, 0x10007c0000000000UL, 0x10047c0000000001UL, 0x10097c0000000029UL,
  0x100c004300000025UL, 0x000000110000000bUL, 0x00000003101e7c00UL, 0x0000001510207c00UL,
  0x0000002710227c00UL, 0x300020011c002001UL, 0x001000353c007c00UL, 0x600020015c002001UL,
  0x1800200164002001UL, 0x3400200128002001UL, 0x000000641c007fe4UL, 0x30007fe400000000UL,
  0x0000000000000064UL, 0x0000000010047c00UL, 0x0000000010097c00UL, 0x00000000100c0043UL,
  0x101e7c0000000000UL, 0x10207c0000000000UL, 0x10227c0000000000UL, 0x1c007c0000000000UL,
  0x1c00042400000002UL, 0x0000000000000064UL, 0x400000001c007c00UL, 0x000000641c007bc4UL,
  0x0080004100000000UL, 0x0000000230007c00UL, 0x0000006430000424UL, 0x30007c0000000000UL,
  0x30007bc440000000UL, 0x0000000000000064UL, 0x3c007c00008000e1UL, 0x3c00042400000002UL,
  0x0000000000000064UL, 0x400000003c007c00UL, 0x000000643c007bc4UL, 0x0080014100000000UL,
  0x080000025c007c00UL, 0x000000645c000424UL, 0x5c007c0000000000UL, 0x5c007bc448000000UL,
  0x0000000000000064UL, 0x60007c0000800241UL, 0x6000042408000002UL, 0x0000000000000064UL,
  0x4800000060007c00UL, 0x0000006460007bc4UL, 0x0080026100000000UL, 0x0800000264007c00UL,
  0x0000006464000424UL, 0x64007c0000000000UL, 0x64007bc448000000UL, 0x0000000000000064UL,
  0x18007c0000800281UL, 0x1800042400000002UL, 0x0000000000000064UL, 0x4000000018007c00UL,
  0x0000006418007bc4UL, 0x0080002100000000UL, 0x0000000228007c00UL, 0x0000006428000424UL,
  0x28007c0000000000UL, 0x28007bc440000000UL, 0x0000000000000064UL, 0x34007c00008000a1UL,
  0x3400042400000002UL, 0x0000000000000064UL, 0x4000000034007c00UL, 0x0000006434007bc4UL,
  0x0080010100000000UL, 0x008021610000013dUL, 0x0010003440007c00UL, 0x10100101400200e3UL,
  0x1063420200001100UL, 0x077f000000780780UL, 0x0000000100770000UL, 0x00000000400a7c00UL,
  0x00000000400d7c00UL, 0x68000042008022a1UL, 0x156000fc08000000UL, 0x000a000068020123UL,
  0x0000000f00000000UL, 0x000383ff000383ffUL, 0x0000000000000000UL, 0x0000000107c403f1UL,
  0x00000000680c0043UL, 0x680b7c0020422042UL, 0x6900040300000001UL, 0x0000ee9ff7866a53UL,
  0x00005be7f8882365UL, 0x00006c8ff6f82b44UL, 0x00008dfcf5803ff5UL, 0x00005dc8f4e33897UL,
  0x00000fa4f8817879UL, 0x00004e47fa5729d7UL, 0x00008380fbc13730UL, 0x000016f9f7e7299dUL,
  0x0000b83af76733b8UL, 0x0000c4d8f9552d86UL, 0x0000e33af88f2115UL, 0x0000d7ddf9883f64UL,
  0x0000a424f62c1c43UL, 0x000041c6f76f6991UL, 0x000010cef8474a7cUL, 0x5c00004200802241UL,
  0x0500016008000000UL, 0x000794005c027c00UL, 0x56874ad15c070043UL, 0x5c0c004300004ad1UL,
  0x1041104100000000UL, 0x6000004200802261UL, 0x1500000008000000UL, 0x0007000060027c00UL,
  0x0000400060070043UL, 0x600c004300000020UL, 0x1041104100000000UL, 0x44007c0000802181UL,
  0x440200e300100034UL, 0x0000110010100101UL, 0x0078078010634303UL, 0x00770000077f0000UL,
  0x440a7c0000000001UL, 0x440d7c0000000000UL, 0x0080228100000000UL, 0x0800000064000042UL,
  0x64020123156000fcUL, 0x0000000000090000UL, 0x000383ff0000000fUL, 0x00000000000383ffUL,
  0x07c403f100000000UL, 0x640c004300000001UL, 0x2042204200000000UL, 0x00000001640b7c00UL,
  0xfe35158965000403UL, 0xfe5431710000dae8UL, 0xfeee1f7d0000ceb6UL, 0xfe0550b6000004c5UL,
  0xfe1b1a730000c100UL, 0xff0328d40000c724UL, 0xfea3628e0000ce41UL, 0xfe4e17a400004850UL,
  0xfeb00b0300004a9aUL, 0xff081fb4000043cfUL, 0xfec40ac00000a65eUL, 0xfe5432c900006945UL,
  0xfe08416a00006389UL, 0xfe33109b0000e951UL, 0xfcfd2df40000a8f5UL, 0xfed019970000ea9bUL,
  0x008020c10000e558UL, 0x000801042c007c00UL, 0x343500002c020043UL, 0x2c0500c300038400UL,
  0x0003840000000000UL, 0x0000000000000001UL, 0x0010000000000024UL, 0x000000062c0c0042UL,
  0x2c0d004300000007UL, 0x3438843f00000001UL, 0x000000002c110043UL, 0x0080200100000000UL,
  0x0008018414007c00UL, 0x704a48d014020043UL, 0x140500c300000100UL, 0x0000000000000000UL,
  0x0000000000000000UL, 0x0010000000000024UL, 0x00000006140c0042UL, 0x140d004300000007UL,
  0x704a4a0f00000001UL, 0x0000000014110043UL, 0x0080206100000008UL, 0x0008010420007c00UL,
  0x342e000020020043UL, 0x200500c300038400UL, 0x0003840000000000UL, 0x0000000000000000UL,
  0x0010000000000024UL, 0x00000006200c0042UL, 0x200d004300000007UL, 0x3431843f00000001UL,
  0x0000000020110043UL, 0x008020a100000000UL, 0x0008018428007c00UL, 0x704a49d028020043UL,
  0x280500c300000100UL, 0x0000000000000000UL, 0x0000000000000000UL, 0x0010000000000024UL,
  0x00000006280c0042UL, 0x280d004300000007UL, 0x704a4b0f00000001UL, 0x0000000028110043UL,
  0x0080202100000008UL, 0x0008010c18007c00UL, 0x3420000018020043UL, 0x180500c300038400UL,
  0x0003840000000000UL, 0x0000000000000000UL, 0x0010000000000024UL, 0x00000006180c0042UL,
  0x180d004300000007UL, 0x3423843f00000001UL, 0x0000000018110043UL, 0x008020e100000000UL,
  0x0008010c30007c00UL, 0x3427000030020043UL, 0x300500c300038400UL, 0x0003840000000000UL,
  0x0000000000000000UL, 0x0010000000000024UL, 0x00000006300c0042UL, 0x300d004300000007UL,
  0x342a843f00000001UL, 0x0000000030110043UL, 0x10007c0000000000UL, 0x1000042400000002UL,
  0x0000000000000064UL, 0x4000000010007c00UL, 0x0000006410007bc4UL, 0x10007c0000000000UL,
  0x10037c0000000001UL, 0x10097c0000000025UL, 0x100f004300000029UL, 0x000000010000000dUL,
  0xff26012710120043UL, 0x101e00630000000bUL, 0x0000002b00000007UL, 0x10227c0000000025UL,
  0x10247c0000000019UL, 0x1800200100000017UL, 0x40007c0030002001UL, 0x44007c0000100035UL,
  0x5c00200100100035UL, 0x6400200160002001UL, 0x1400200168002001UL, 0x2800200120002001UL,
  0x18007fe42c002001UL, 0x0000000000000064UL, 0x0000006430007fe4UL, 0x10037c0000000000UL,
  0x10097c0000000000UL, 0x100f004300000000UL, 0x0000000000000000UL, 0x0000000010120043UL,
  0x101e006300000000UL, 0x0000000000000000UL, 0x10227c0000000000UL, 0x10247c0000000000UL,
  0x18007c0000000000UL, 0x1800042400000002UL, 0x0000000000000064UL, 0x4000000018007c00UL,
  0x0000006418007bc4UL, 0x0080002100000000UL, 0x0000000230007c00UL, 0x0000006430000424UL,
  0x30007c0000000000UL, 0x30007bc440000000UL, 0x0000000000000064UL, 0x40007c00008000e1UL,
  0x4000042400000002UL, 0x0000000000000064UL, 0x4000000040007c00UL, 0x0000006440007bc4UL,
  0x0080016100000000UL, 0x0000000244007c00UL, 0x0000006444000424UL, 0x44007c0000000000UL,
  0x44007bc440000000UL, 0x0000000000000064UL, 0x5c007c0000800181UL, 0x5c00042408000002UL,
  0x0000000000000064UL, 0x480000005c007c00UL, 0x000000645c007bc4UL, 0x0080024100000000UL,
  0x0800000260007c00UL, 0x0000006460000424UL, 0x60007c0000000000UL, 0x60007bc448000000UL,
  0x0000000000000064UL, 0x64007c0000800261UL, 0x6400042408000002UL, 0x0000000000000064UL,
  0x4800000064007c00UL, 0x0000006464007bc4UL, 0x0080028100000000UL, 0x0800000268007c00UL,
  0x0000006468000424UL, 0x68007c0000000000UL, 0x68007bc448000000UL, 0x0000000000000064UL,
  0x14007c00008002a1UL, 0x1400042400000002UL, 0x0000000000000064UL, 0x4000000014007c00UL,
  0x0000006414007bc4UL, 0x0080000100000000UL, 0x0000000220007c00UL, 0x0000006420000424UL,
  0x20007c0000000000UL, 0x20007bc440000000UL, 0x0000000000000064UL, 0x28007c0000800061UL,
  0x2800042400000002UL, 0x0000000000000064UL, 0x4000000028007c00UL, 0x0000006428007bc4UL,
  0x008000a100000000UL, 0x000000022c007c00UL, 0x000000642c000424UL, 0x2c007c0000000000UL,
  0x2c007bc440000000UL, 0x0000000000000064UL, 0x0000015d008000c1UL, 0x5c00004200802241UL,
  0x1500000008000000UL, 0x000700005c027c00UL, 0x000040005c070043UL, 0x5c0c004300000020UL,
  0x1041104100000000UL, 0x34007c0000802101UL, 0x3402004300080104UL, 0x0003840034270000UL,
  0x00000000340500c3UL, 0x0000000000038400UL, 0x0000002400000000UL, 0x340c004200100000UL,
  0x0000000700000006UL, 0x00000001340d0043UL, 0x34110043342a843fUL, 0x0000000000000000UL,
  0x14007c0000802001UL, 0x1402012300080008UL, 0x00780004342e0000UL, 0x00000004e1000004UL,
  0x00000078000001e0UL, 0x0000002400038400UL, 0x140c004200100000UL, 0x0000000700000006UL,
  0x00000078140d0043UL, 0x141100433431843fUL, 0x0000000000000000UL, 0x0000000210007c00UL,
  0x0000006410000424UL, 0x10007c0000000000UL, 0x10007bc440000000UL, 0x0000000000000064UL,
  0x0000000110007c00UL, 0x0000002510027c00UL, 0x00000011101e7c00UL, 0x5c00200114002001UL,
  0x14007fe434002001UL, 0x0000000000000064UL, 0x0000000010027c00UL, 0x00000000101e7c00UL,
  0x0000000214007c00UL, 0x0000006414000424UL, 0x14007c0000000000UL, 0x14007bc440000000UL,
  0x0000000000000064UL, 0x5c007c0000800001UL, 0x5c00042408000002UL, 0x0000000000000064UL,
  0x480000005c007c00UL, 0x000000645c007bc4UL, 0x0080024100000000UL, 0x0000000234007c00UL,
  0x0000006434000424UL, 0x34007c0000000000UL, 0x34007bc440000000UL, 0x0000000000000064UL,
  0x0000017d00800101UL, 0x48007c00008021a1UL, 0x480200e300100034UL, 0x0000115504040303UL,
  0x007801e010634202UL, 0x0077000001df0000UL, 0x480a7c0000000001UL, 0x480d7c0000000000UL,
  0x0080226100000000UL, 0x0800000060000042UL, 0x60020123156000fcUL, 0x0000000000080000UL,
  0x0000e0ff00000003UL, 0x00000000000383ffUL, 0x07c403fd00000000UL, 0x600c004300000001UL,
  0x2042204200000000UL, 0x00000001600b7c00UL, 0xff9307ab61000403UL, 0xff890bba0000821cUL,
  0xff090bba00007b47UL, 0xff8a13630000050fUL, 0xff7309c700009542UL, 0xff870d890000e51aUL,
  0xff9d024000000506UL, 0xff7f1d210000d8dfUL, 0xff8920770000086aUL, 0xff8909ad0000e45aUL,
  0xff7144c8000097b3UL, 0xffac056900006caaUL, 0xff9804640000fbf2UL, 0xff8a17ad0000fca0UL,
  0xff800618000090c8UL, 0xff88165f0000830eUL, 0x008022810000c867UL, 0x0800000064000042UL,
  0x64027c0015000000UL, 0x6407004300070000UL, 0x0000002000004000UL, 0x00000000640c0043UL,
  0x0080212110411041UL, 0x0008010038007c00UL, 0x342e000038020043UL, 0x380500c30000e100UL,
  0x0000000000000000UL, 0x0000e10000000001UL, 0x0010000000000024UL, 0x00000006380c0042UL,
  0x380d004300000007UL, 0x3431843f00000004UL, 0x0000000038110043UL, 0x0080206100000000UL,
  0x0008018420007c00UL, 0x704a3be020020043UL, 0x200500c300000240UL, 0x0000000000000000UL,
  0x0000000000000000UL, 0x0010000000000024UL, 0x00000006200c0042UL, 0x200d004300000007UL,
  0x704a3e5f00000001UL, 0x0000000020110043UL, 0x0080200100000008UL, 0x0008000814007c00UL,
  0x3435000014020123UL, 0x0010000400780078UL, 0x0000000400000780UL, 0x0003840000000004UL,
  0x0010000000000024UL, 0x00000006140c0042UL, 0x140d004300000007UL, 0x3438843f00000004UL,
  0x0000000014110043UL, 0x10007c0000000000UL, 0x1000042400000002UL, 0x0000000000000064UL,
  0x4000000010007c00UL, 0x0000006410007bc4UL, 0x10007c0000000000UL, 0x10027c0000000001UL,
  0x1015004300000029UL, 0x0000000700000013UL, 0x0000001b10207c00UL, 0x0000002710227c00UL,
  0x48007c0014002001UL, 0x6000200100100035UL, 0x2000200164002001UL, 0x14007fe438002001UL,
  0x0000000000000064UL, 0x0000000010027c00UL, 0x0000000010150043UL, 0x10207c0000000000UL,
  0x10227c0000000000UL, 0x14007c0000000000UL, 0x1400042400000002UL, 0x0000000000000064UL,
  0x4000000014007c00UL, 0x0000006414007bc4UL, 0x0080000100000000UL, 0x0000000248007c00UL,
  0x0000006448000424UL, 0x48007c0000000000UL, 0x48007bc440000000UL, 0x0000000000000064UL,
  0x60007c00008001a1UL, 0x6000042408000002UL, 0x0000000000000064UL, 0x4800000060007c00UL,
  0x0000006460007bc4UL, 0x0080026100000000UL, 0x0800000264007c00UL, 0x0000006464000424UL,
  0x64007c0000000000UL, 0x64007bc448000000UL, 0x0000000000000064UL, 0x20007c0000800281UL,
  0x2000042400000002UL, 0x0000000000000064UL, 0x4000000020007c00UL, 0x0000006420007bc4UL,
  0x0080006100000000UL, 0x0000000238007c00UL, 0x0000006438000424UL, 0x38007c0000000000UL,
  0x38007bc440000000UL, 0x0000000000000064UL, 0x0000019d00800121UL, 0x3c007c0000802141UL,
  0x3c0200e300100034UL, 0x0000110010100101UL, 0x0078078010634303UL, 0x00770000077f0000UL,
  0x3c0a7c0000000001UL, 0x3c0d7c0000000000UL, 0x008022a100000000UL, 0x0800000068000042UL,
  0x68020123156000fcUL, 0x0000000000090000UL, 0x000383ff0000000fUL, 0x00000000000383ffUL,
  0x07c403f100000000UL, 0x680c004300000001UL, 0x2042204200000000UL, 0x00000001680b7c00UL,
  0xff391c5269000403UL, 0xfdc52894000077b5UL, 0xfeb61e5d00008c3eUL, 0xfe2f0fbc0000dc04UL,
  0xfeae14230000a11eUL, 0xfe39288700006ea4UL, 0xffbf24b3000071dfUL, 0xfe65284800008045UL,
  0xfe5313cf0000596aUL, 0xfe862b5c00006445UL, 0xfeda40f80000c27aUL, 0xfd95218b0000a1d1UL,
  0xfeb729dd00006be5UL, 0xfdbd23e900008a18UL, 0xfe81227b00005e30UL, 0xfe282ec30000cf5aUL,
  0x00802241000052caUL, 0x080000005c000042UL, 0x5c027c0005000160UL, 0x5c07004300079420UL,
  0x000074ee79f46406UL, 0x000000005c0c0043UL, 0x0080226110411041UL, 0x0800000060000042UL,
  0x60027c0015000000UL, 0x6007004300070000UL, 0x0000002000004000UL, 0x00000000600c0043UL,
  0x0080216110411041UL, 0x0010003440007c00UL, 0x10100101400200e3UL, 0x1063420200001100UL,
  0x077f000000780780UL, 0x0000000100770000UL, 0x00000000400a7c00UL, 0x00000000400d7c00UL,
  0x6400004200802281UL, 0x156000fc08000000UL, 0x0009800064020123UL, 0x0000000f00000000UL,
  0x000383ff000383ffUL, 0x0000000000000000UL, 0x0000000107c403f1UL, 0x00000000640c0043UL,
  0x640b7c0020422042UL, 0x6500040300000001UL, 0x00000ea6fbec1e08UL, 0x00003db3fb9e511fUL,
  0x0000f979fd350e7aUL, 0x0000e0a9faf21b2bUL, 0x0000ac3afc3d225cUL, 0x00001b92ff733545UL,
  0x0000ab07fbe6234bUL, 0x00009070febb256bUL, 0x0000d57ffd501004UL, 0x00009029fd8414e9UL,
  0x00007282f9c02b00UL, 0x00000a91fc3f3b8dUL, 0x0000594aff4d68a2UL, 0x0000fd8cfaec279dUL,
  0x0000184cfda61310UL, 0x00005bb8fc3a3762UL, 0x18007c0000802021UL, 0x1802004300080104UL,
  0x0003840034350000UL, 0x00000000180500c3UL, 0x0000000100038400UL, 0x0000002400000000UL,
  0x180c004200100000UL, 0x0000000700000006UL, 0x00000001180d0043UL, 0x181100433438843fUL,
  0x0000000000000000UL, 0x38007c0000802121UL, 0x3802004300080184UL, 0x00000100704a4ad0UL,
  0x00000000380500c3UL, 0x0000000000000000UL, 0x0000002400000000UL, 0x380c004200100000UL,
  0x0000000700000006UL, 0x00000001380d0043UL, 0x38110043704a4c0fUL, 0x0000000800000000UL,
  0x24007c0000802081UL, 0x2402004300080104UL, 0x0003840034200000UL, 0x00000000240500c3UL,
  0x0000000000038400UL, 0x0000002400000000UL, 0x240c004200100000UL, 0x0000000700000006UL,
  0x00000001240d0043UL, 0x241100433423843fUL, 0x0000000000000000UL, 0x20007c0000802061UL,
  0x2002004300080184UL, 0x00000100704a4bd0UL, 0x00000000200500c3UL, 0x0000000000000000UL,
  0x0000002400000000UL, 0x200c004200100000UL, 0x0000000700000006UL, 0x00000001200d0043UL,
  0x20110043704a4d0fUL, 0x0000000800000000UL, 0x34007c0000802101UL, 0x340200430008010cUL,
  0x0003840034270000UL, 0x00000000340500c3UL, 0x0000000000038400UL, 0x0000002400000000UL,
  0x340c004200100000UL, 0x0000000700000006UL, 0x00000001340d0043UL, 0x34110043342a843fUL,
  0x0000000000000000UL, 0x2c007c00008020c1UL, 0x2c0200430008010cUL, 0x00038400342e0000UL,
  0x000000002c0500c3UL, 0x0000000000038400UL, 0x0000002400000000UL, 0x2c0c004200100000UL,
  0x0000000700000006UL, 0x000000012c0d0043UL, 0x2c1100433431843fUL, 0x0000000000000000UL,
  0x0000000210007c00UL, 0x0000006410000424UL, 0x10007c0000000000UL, 0x10007bc440000000UL,
  0x0000000000000064UL, 0x0000000110007c00UL, 0x0000002910087c00UL, 0x00000025100a7c00UL,
  0x00000003100c0043UL, 0x100f004300000013UL, 0x00000007ff260127UL, 0x00000009101e0063UL,
  0x000000250000002bUL, 0x0000001710227c00UL, 0x0000001510247c00UL, 0x340020012c002001UL,
  0x001000353c007c00UL, 0x0010003540007c00UL, 0x600020015c002001UL, 0x6800200164002001UL,
  0x2000200118002001UL, 0x3800200124002001UL, 0x000000642c007fe4UL, 0x34007fe400000000UL,
  0x0000000000000064UL, 0x0000000010087c00UL, 0x00000000100a7c00UL, 0x00000000100c0043UL,
  0x100f004300000000UL, 0x0000000000000000UL, 0x00000000101e0063UL, 0x0000000000000000UL,
  0x0000000010227c00UL, 0x0000000010247c00UL, 0x000000022c007c00UL, 0x000000642c000424UL,
  0x2c007c0000000000UL, 0x2c007bc440000000UL, 0x0000000000000064UL, 0x34007c00008000c1UL,
  0x3400042400000002UL, 0x0000000000000064UL, 0x4000000034007c00UL, 0x0000006434007bc4UL,
  0x0080010100000000UL, 0x000000023c007c00UL, 0x000000643c000424UL, 0x3c007c0000000000UL,
  0x3c007bc440000000UL, 0x0000000000000064UL, 0x40007c0000800141UL, 0x4000042400000002UL,
  0x0000000000000064UL, 0x4000000040007c00UL, 0x0000006440007bc4UL, 0x0080016100000000UL,
  0x080000025c007c00UL, 0x000000645c000424UL, 0x5c007c0000000000UL, 0x5c007bc448000000UL,
  0x0000000000000064UL, 0x60007c0000800241UL, 0x6000042408000002UL, 0x0000000000000064UL,
  0x4800000060007c00UL, 0x0000006460007bc4UL, 0x0080026100000000UL, 0x0800000264007c00UL,
  0x0000006464000424UL, 0x64007c0000000000UL, 0x64007bc448000000UL, 0x0000000000000064UL,
  0x68007c0000800281UL, 0x6800042408000002UL, 0x0000000000000064UL, 0x4800000068007c00UL,
  0x0000006468007bc4UL, 0x008002a100000000UL, 0x0000000218007c00UL, 0x0000006418000424UL,
  0x18007c0000000000UL, 0x18007bc440000000UL, 0x0000000000000064UL, 0x20007c0000800021UL,
  0x2000042400000002UL, 0x0000000000000064UL, 0x4000000020007c00UL, 0x0000006420007bc4UL,
  0x0080006100000000UL, 0x0000000224007c00UL, 0x0000006424000424UL, 0x24007c0000000000UL,
  0x24007bc440000000UL, 0x0000000000000064UL, 0x38007c0000800081UL, 0x3800042400000002UL,
  0x0000000000000064UL, 0x4000000038007c00UL, 0x0000006438007bc4UL, 0x0080012100000000UL,
  0x00802241000001bdUL, 0x080000005c000042UL, 0x5c027c0015000000UL, 0x5c07004300070000UL,
  0x0000002000004000UL, 0x000000005c0c0043UL, 0x008020c110411041UL, 0x000801042c007c00UL,
  0x342e00002c020043UL, 0x2c0500c300038400UL, 0x0003840000000000UL, 0x0000000000000000UL,
  0x0010000000000024UL, 0x000000062c0c0042UL, 0x2c0d004300000007UL, 0x3431843f00000001UL,
  0x000000002c110043UL, 0x0080208100000000UL, 0x0008000824007c00UL, 0x3420000024020123UL,
  0xe100000400780004UL, 0x000001e000000004UL, 0x0003840000000078UL, 0x0010000000000024UL,
  0x00000006240c0042UL, 0x240d004300000007UL, 0x3423843f00000078UL, 0x0000000024110043UL,
  0x10007c0000000000UL, 0x1000042400000002UL, 0x0000000000000064UL, 0x4000000010007c00UL,
  0x0000006410007bc4UL, 0x10007c0000000000UL, 0x10067c0000000001UL, 0x101e7c0000000025UL,
  0x240020010000000dUL, 0x2c0020015c002001UL, 0x0000006424007fe4UL, 0x10067c0000000000UL,
  0x101e7c0000000000UL, 0x24007c0000000000UL, 0x2400042400000002UL, 0x0000000000000064UL,
  0x4000000024007c00UL, 0x0000006424007bc4UL, 0x0080008100000000UL, 0x080000025c007c00UL,
  0x000000645c000424UL, 0x5c007c0000000000UL, 0x5c007bc448000000UL, 0x0000000000000064UL,
  0x2c007c0000800241UL, 0x2c00042400000002UL, 0x0000000000000064UL, 0x400000002c007c00UL,
  0x000000642c007bc4UL, 0x008000c100000000UL, 0x00802181000001ddUL, 0x0010003444007c00UL,
  0x04040303440200e3UL, 0x1063400000001155UL, 0x01df0000007801e0UL, 0x0000000100770000UL,
  0x00000000440a7c00UL, 0x00000000440d7c00UL, 0x6000004200802261UL, 0x156000fc08000000UL,
  0x0009800060020123UL, 0x0000000300000000UL, 0x000383ff0000e0ffUL, 0x0000000000000000UL,
  0x0000000107c403fdUL, 0x00000000600c0043UL, 0x600b7c0020422042UL, 0x6100040300000001UL,
  0x0000ef00fc2c210eUL, 0x00005d1efc3c10f2UL, 0x0000072cfe4c2a2eUL, 0x0000eadffbc80feaUL,
  0x0000fd96fc141adeUL, 0x000008b5fbb410edUL, 0x0000fff4fbc4254bUL, 0x0000001efb771a6eUL,
  0x000068fdfbf24595UL, 0x0000aa0dfc7234b3UL, 0x00002658fbba0e34UL, 0x0000c9fcfcd21ff3UL,
  0x000010affbf90ddfUL, 0x0000eb3bfbf00f81UL, 0x0000dcadfc27213dUL, 0x0000ba3efc3421a9UL,
  0x6400004200802281UL, 0x1500000008000000UL, 0x0007000064027c00UL, 0x0000400064070043UL,
  0x640c004300000020UL, 0x1041104100000000UL, 0x24007c0000802081UL, 0x2402004300080100UL,
  0x0000e10034200000UL, 0x00000000240500c3UL, 0x0000000100000000UL, 0x000000240000e100UL,
  0x240c004200100000UL, 0x0000000700000006UL, 0x00000004240d0043UL, 0x241100433423843fUL,
  0x0000000000000000UL, 0x1c007c0000802041UL, 0x1c02004300080184UL, 0x00000240704a3e20UL,
  0x000000001c0500c3UL, 0x0000000000000000UL, 0x0000002400000000UL, 0x1c0c004200100000UL,
  0x0000000700000006UL, 0x000000011c0d0043UL, 0x1c110043704a409fUL, 0x0000000800000000UL,
  0x34007c0000802101UL, 0x3402012300080008UL, 0x00780078342e0000UL, 0x0000078000100004UL,
  0x0000000400000004UL, 0x0000002400038400UL, 0x340c004200100000UL, 0x0000000700000006UL,
  0x00000004340d0043UL, 0x341100433431843fUL, 0x0000000000000000UL, 0x0000000210007c00UL,
  0x0000006410000424UL, 0x10007c0000000000UL, 0x10007bc440000000UL, 0x0000000000000064UL,
  0x0000000110007c00UL, 0x00000029100a7c00UL, 0x0000000910120043UL, 0x10207c0000000005UL,
  0x10227c0000000019UL, 0x3400200100000027UL, 0x0010003544007c00UL, 0x6400200160002001UL,
  0x240020011c002001UL, 0x0000006434007fe4UL, 0x100a7c0000000000UL, 0x1012004300000000UL,
  0x0000000000000000UL, 0x0000000010207c00UL, 0x0000000010227c00UL, 0x0000000234007c00UL,
  0x0000006434000424UL, 0x34007c0000000000UL, 0x34007bc440000000UL, 0x0000000000000064UL,
  0x44007c0000800101UL, 0x4400042400000002UL, 0x0000000000000064UL, 0x4000000044007c00UL,
  0x0000006444007bc4UL, 0x0080018100000000UL, 0x0800000260007c00UL, 0x0000006460000424UL,
  0x60007c0000000000UL, 0x60007bc448000000UL, 0x0000000000000064UL, 0x64007c0000800261UL,
  0x6400042408000002UL, 0x0000000000000064UL, 0x4800000064007c00UL, 0x0000006464007bc4UL,
  0x0080028100000000UL, 0x000000021c007c00UL, 0x000000641c000424UL, 0x1c007c0000000000UL,
  0x1c007bc440000000UL, 0x0000000000000064UL, 0x24007c0000800041UL, 0x2400042400000002UL,
  0x0000000000000064UL, 0x4000000024007c00UL, 0x0000006424007bc4UL, 0x0080008100000000UL,
  0x008021a1000001fdUL, 0x0010003448007c00UL, 0x10100101480200e3UL, 0x1063430300001100UL,
  0x077f000000780780UL, 0x0000000100770000UL, 0x00000000480a7c00UL, 0x00000000480d7c00UL,
  0x68000042008022a1UL, 0x156000fc08000000UL, 0x0009000068020123UL, 0x0000000f00000000UL,
  0x000383ff000383ffUL, 0x0000000000000000UL, 0x0000000107c403f1UL, 0x00000000680c0043UL,
  0x680b7c0020422042UL, 0x6900040300000001UL, 0x0000696dfeda2399UL, 0x00003520fe4c2b11UL,
  0x00008afafea82760UL, 0x0000d0f1fe604b4eUL, 0x00007ccffe1b2357UL, 0x0000f24afe072f2cUL,
  0x00004a7efe1a27eaUL, 0x0000eb6bfdfb3644UL, 0x000039f1fe721f7dUL, 0x00006a83fe804100UL,
  0x0000ab1efeb72ab0UL, 0x0000a652fdcd2f05UL, 0x00008f2dfefd2067UL, 0x00005442fea26514UL,
  0x00001c31fe443aeeUL, 0x00009ceafe401bf4UL, 0x5c00004200802241UL, 0x0500016008000000UL,
  0x000788205c027c00UL, 0x5a3959cd5c070043UL, 0x5c0c004300005209UL, 0x1041104100000000UL,
  0x20007c0000802061UL, 0x2002004300080104UL, 0x00038400342e0000UL, 0x00000000200500c3UL,
  0x0000000100038400UL, 0x0000002400000000UL, 0x200c004200100000UL, 0x0000000700000006UL,
  0x00000001200d0043UL, 0x201100433431843fUL, 0x0000000000000000UL, 0x1c007c0000802041UL,
  0x1c02004300080184UL, 0x00000100704a4cd0UL, 0x000000001c0500c3UL, 0x0000000000000000UL,
  0x0000002400000000UL, 0x1c0c004200100000UL, 0x0000000700000006UL, 0x000000011c0d0043UL,
  0x1c110043704a4e0fUL, 0x0000000800000000UL, 0x30007c00008020e1UL, 0x3002004300080104UL,
  0x0003840034270000UL, 0x00000000300500c3UL, 0x0000000000038400UL, 0x0000002400000000UL,
  0x300c004200100000UL, 0x0000000700000006UL, 0x00000001300d0043UL, 0x30110043342a843fUL,
  0x0000000000000000UL, 0x38007c0000802121UL, 0x380200430008010cUL, 0x0003840034170800UL,
  0x00000000380500c3UL, 0x0000000000038400UL, 0x0000002400000000UL, 0x380c004200100000UL,
  0x0000000700000006UL, 0x00000001380d0043UL, 0x38110043341a8c3fUL, 0x0000000000000000UL,
  0x0000000210007c00UL, 0x0000006410000424UL, 0x10007c0000000000UL, 0x10007bc440000000UL,
  0x0000000000000064UL, 0x0000000110007c00UL, 0x00000025100b7c00UL, 0x0000000710150043UL,
  0x101e004300000005UL, 0x0000002b0000000fUL, 0x0000001b10247c00UL, 0x48007c0038002001UL,
  0x5c00200100100035UL, 0x1c00200168002001UL, 0x3000200120002001UL, 0x0000006438007fe4UL,
  0x100b7c0000000000UL, 0x1015004300000000UL, 0x0000000000000000UL, 0x00000000101e0043UL,
  0x10247c0000000000UL, 0x38007c0000000000UL, 0x3800042400000002UL, 0x0000000000000064UL,
  0x4000000038007c00UL, 0x0000006438007bc4UL, 0x0080012100000000UL, 0x0000000248007c00UL,
  0x0000006448000424UL, 0x48007c0000000000UL, 0x48007bc440000000UL, 0x0000000000000064UL,
  0x5c007c00008001a1UL, 0x5c00042408000002UL, 0x0000000000000064UL, 0x480000005c007c00UL,
  0x000000645c007bc4UL, 0x0080024100000000UL, 0x0800000268007c00UL, 0x0000006468000424UL,
  0x68007c0000000000UL, 0x68007bc448000000UL, 0x0000000000000064UL, 0x1c007c00008002a1UL,
  0x1c00042400000002UL, 0x0000000000000064UL, 0x400000001c007c00UL, 0x000000641c007bc4UL,
  0x0080004100000000UL, 0x0000000220007c00UL, 0x0000006420000424UL, 0x20007c0000000000UL,
  0x20007bc440000000UL, 0x0000000000000064UL, 0x30007c0000800061UL, 0x3000042400000002UL,
  0x0000000000000064UL, 0x4000000030007c00UL, 0x0000006430007bc4UL, 0x008000e100000000UL,
  0x0000023d0000021dUL, 0x6000004200802261UL, 0x1500000008000000UL, 0x0007000060027c00UL,
  0x0000400060070043UL, 0x600c004300000020UL, 0x1041104100000000UL, 0x18007c0000802021UL,
  0x1802004300080100UL, 0x0003840034170800UL, 0x00000000180500c3UL, 0x0000000000038400UL,
  0x0000002400000000UL, 0x180c004200100000UL, 0x0000000700000006UL, 0x00000002180d0043UL,
  0x18110043341e103fUL, 0x0000000000000000UL, 0x38007c0000802121UL, 0x3802012300080008UL,
  0x0078007834100000UL, 0x00000f0000200010UL, 0x0000000200000010UL, 0x0000002400070800UL,
  0x380c004200100000UL, 0x0000000700000006UL, 0x00000002380d0043UL, 0x381100433417083fUL,
  0x0000000000000000UL, 0x0000000210007c00UL, 0x0000006410000424UL, 0x10007c0000000000UL,
  0x10007bc440000000UL, 0x0000000000000064UL, 0x0000000110007c00UL, 0x00000027100b7c00UL,
  0x0000000310207c00UL, 0x6000200138002001UL, 0x38007fe418002001UL, 0x0000000000000064UL,
  0x00000000100b7c00UL, 0x0000000010207c00UL, 0x0000000238007c00UL, 0x0000006438000424UL,
  0x38007c0000000000UL, 0x38007bc440000000UL, 0x0000000000000064UL, 0x60007c0000800121UL,
  0x6000042408000002UL, 0x0000000000000064UL, 0x4800000060007c00UL, 0x0000006460007bc4UL,
  0x0080026100000000UL, 0x0000000218007c00UL, 0x0000006418000424UL, 0x18007c0000000000UL,
  0x18007bc440000000UL, 0x0000000000000064UL, 0x0000025d00800021UL, 0x3c007c0000802141UL,
  0x3c0200e310d00034UL, 0x0000110010200101UL, 0x00780f0010e34202UL, 0x007700000eff0000UL,
  0x3c0a7c0000000001UL, 0x3c0d7c0000000000UL, 0x0080228100000000UL, 0x0800000064000042UL,
  0x64020123156000fcUL, 0x0000000000090000UL, 0x000383ff0000000fUL, 0x00000000000707ffUL,
  0x078403f100000000UL, 0x640c004300000001UL, 0x2042204200000000UL, 0x00000001640b7c00UL,
  0xfef0142465000803UL, 0xfeb8057b0000f7f0UL, 0xfed81b5600005ecaUL, 0xfe1d0e510000db32UL,
  0xfdc71ee90000a6b2UL, 0xfe9411ce000095dbUL, 0xfead0e82000099ffUL, 0xfe7c0d1e0000e26eUL,
  0xfea91d35000092d3UL, 0xff3421e600005bbaUL, 0xfea409990000761eUL, 0xfe4d236b00008bc3UL,
  0xfec308f90000e387UL, 0xfd1f1a7f0000e15dUL, 0xfe70155300003ec8UL, 0xfdcf1cd700007a2eUL,
  0xfe4f146b0000e5d4UL, 0xfd3d117d0000a3fdUL, 0xfdc00f1100007094UL, 0xfec8119b00004650UL,
  0xfe7213a200000aa5UL, 0xfd77232b0000024fUL, 0xfecb0b4100002e2bUL, 0xfec10e1500000e61UL,
  0xfe9712450000a51aUL, 0xfe6b100c000081a4UL, 0xfeb00a3600001b2fUL, 0xfc8746a300009723UL,
  0xfe340e5d00000439UL, 0xfe79200b0000e9d5UL, 0xfe9715450000eae7UL, 0xfd8e16d100005429UL,
  0x008022410000bd91UL, 0x080000005c000042UL, 0x5c027c0015000000UL, 0x5c07004300070000UL,
  0x0000002000004000UL, 0x000000005c0c0043UL, 0x0080210110411041UL, 0x0888030034007c00UL,
  0x3410000034020043UL, 0x340500c300025800UL, 0x0000000000000000UL, 0x0007080000000002UL,
  0x0010000000000024UL, 0x00000006340c0042UL, 0x340d004300000007UL, 0x3417083f00000002UL,
  0x0000000034110043UL, 0x0080204100000000UL, 0x088801841c007c00UL, 0x7049c8d01c020043UL,
  0x1c0500c300000156UL, 0x0000000000000000UL, 0x0000000000000000UL, 0x0010000000000024UL,
  0x000000061c0c0042UL, 0x1c0d004300000007UL, 0x7049cd1700000001UL, 0x000000001c110043UL,
  0x0080200100000008UL, 0x0008000814007c00UL, 0x342fc20014020123UL, 0x0020001000780078UL,
  0x0000001000000f00UL, 0x0007080000000002UL, 0x0010000000000024UL, 0x00000006140c0042UL,
  0x140d004300000007UL, 0x3436ca3f00000002UL, 0x0000000014110043UL, 0x10007c0000000000UL,
  0x1000042400000002UL, 0x0000000000000064UL, 0x4000000010007c00UL, 0x0000006410007bc4UL,
  0x10007c0000000000UL, 0x10027c0000000001UL, 0x100c004300000025UL, 0x0000000500000011UL,
  0x00000029101e7c00UL, 0x0000001510227c00UL, 0x3c007c0014002001UL, 0x5c00200110d00035UL,
  0x1c00200164002001UL, 0x14007fe434002001UL, 0x0000000000000064UL, 0x0000000010027c00UL,
  0x00000000100c0043UL, 0x101e7c0000000000UL, 0x10227c0000000000UL, 0x14007c0000000000UL,
  0x1400042400000002UL, 0x0000000000000064UL, 0x4000000014007c00UL, 0x0000006414007bc4UL,
  0x0080000100000000UL, 0x000000023c007c00UL, 0x000000643c000424UL, 0x3c007c0000000000UL,
  0x3c007bc440000000UL, 0x0000000000000064UL, 0x5c007c0000800141UL, 0x5c00042408000002UL,
  0x0000000000000064UL, 0x480000005c007c00UL, 0x000000645c007bc4UL, 0x0080024100000000UL,
  0x0800000264007c00UL, 0x0000006464000424UL, 0x64007c0000000000UL, 0x64007bc448000000UL,
  0x0000000000000064UL, 0x1c007c0000800281UL, 0x1c00042400000002UL, 0x0000000000000064UL,
  0x400000001c007c00UL, 0x000000641c007bc4UL, 0x0080004100000000UL, 0x0000000234007c00UL,
  0x0000006434000424UL, 0x34007c0000000000UL, 0x34007bc440000000UL, 0x0000000000000064UL,
  0x0000027d00800101UL, 0x40007c0000802161UL, 0x400200e320100034UL, 0x0000220004040303UL,
  0x007801e010634303UL, 0x0077000001df0000UL, 0x400a7c0000000001UL, 0x400d7c0001000400UL,
  0x008022a100000000UL, 0x0800000068000042UL, 0x68020123156000fcUL, 0x0000000000090000UL,
  0x0000383f00000003UL, 0x000000000001c1ffUL, 0x078403fd00000000UL, 0x680c004300000001UL,
  0x2042204200000000UL, 0x00000001680b7c00UL, 0xfeb81a2869000803UL, 0xff686fa90000fb8aUL,
  0xfe261c480000b70eUL, 0xfe203d0f0000dffdUL, 0xfe6e13c900000544UL, 0xfde825d700001752UL,
  0x005225d4000062ddUL, 0xfe06282d0000293cUL, 0xfe3f15260000c49fUL, 0x00112b8100007e85UL,
  0xfd7c30ac0000d509UL, 0xff26147900006322UL, 0xfea03e540000212cUL, 0xfdff18c400008208UL,
  0xfdff386600008743UL, 0xfed0123700007301UL, 0x00621e02000014e8UL, 0xfe011aec0000a956UL,
  0xfdaa2344000049cdUL, 0xfea6202f000006a2UL, 0xff351be800004c0eUL, 0xfe01169b00006a3cUL,
  0xfd7d1b5a0000b051UL, 0xfdef3d6b000096b5UL, 0xff61264600008920UL, 0xfda328ce00001ae7UL,
  0xf9c15fb50000fcbdUL, 0xff4914510000ec7cUL, 0xfe79435800008096UL, 0xfe1538540000dc8fUL,
  0xfdf53f6b00005ec0UL, 0xfed313b30000809bUL, 0x008022610000f315UL, 0x0800000060000042UL,
  0x60027c0015000000UL, 0x6007004300070000UL, 0x0000002000004000UL, 0x00000000600c0043UL,
  0x0080208110411041UL, 0x0088020024007c00UL, 0x342fc20024020123UL, 0x0020000200780078UL,
  0x0000000000000f00UL, 0x0000000400000001UL, 0x0010000000000024UL, 0x00000006240c0042UL,
  0x240d004300000007UL, 0x3436ca3f00000008UL, 0x0000000024110043UL, 0x008020a100000000UL,
  0x0008018428007c00UL, 0x70497c5028020043UL, 0x280500c300000480UL, 0x0000000000000000UL,
  0x0000000000000000UL, 0x0010000000000024UL, 0x00000006280c0042UL, 0x280d004300000007UL,
  0x7049810f00000001UL, 0x0000000028110043UL, 0x0080210100000008UL, 0x0008000834007c00UL,
  0x342e000034020123UL, 0x00200004003c003cUL, 0x0000000400000780UL, 0x0001c20000000008UL,
  0x0010000000000024UL, 0x00000006340c0042UL, 0x340d004300000007UL, 0x342fc23f00000008UL,
  0x0000000034110043UL, 0x10007c0000000000UL, 0x1000042400000002UL, 0x0000000000000064UL,
  0x4000000010007c00UL, 0x0000006410007bc4UL, 0x10007c0000000000UL, 0x100a7c0000000001UL,
  0x100f004300000027UL, 0x0000000b00000009UL, 0x0000002b10207c00UL, 0x0000001710247c00UL,
  0x40007c0034002001UL, 0x6000200120100035UL, 0x2400200168002001UL, 0x34007fe428002001UL,
  0x0000000000000064UL, 0x00000000100a7c00UL, 0x00000000100f0043UL, 0x10207c0000000000UL,
  0x10247c0000000000UL, 0x34007c0000000000UL, 0x3400042400000002UL, 0x0000000000000064UL,
  0x4000000034007c00UL, 0x0000006434007bc4UL, 0x0080010100000000UL, 0x0000000240007c00UL,
  0x0000006440000424UL, 0x40007c0000000000UL, 0x40007bc440000000UL, 0x0000000000000064UL,
  0x60007c0000800161UL, 0x6000042408000002UL, 0x0000000000000064UL, 0x4800000060007c00UL,
  0x0000006460007bc4UL, 0x0080026100000000UL, 0x0800000268007c00UL, 0x0000006468000424UL,
  0x68007c0000000000UL, 0x68007bc448000000UL, 0x0000000000000064UL, 0x24007c00008002a1UL,
  0x2400042400000002UL, 0x0000000000000064UL, 0x4000000024007c00UL, 0x0000006424007bc4UL,
  0x0080008100000000UL, 0x0000000228007c00UL, 0x0000006428000424UL, 0x28007c0000000000UL,
  0x28007bc440000000UL, 0x0000000000000064UL, 0x0000029d008000a1UL, 0x44007c0000802181UL,
  0x440200e310d00034UL, 0x0000110010200101UL, 0x003c078010e34404UL, 0x003b0000077f0000UL,
  0x440a7c0000000001UL, 0x440d7c0000000000UL, 0x0080224100000000UL, 0x080000005c000042UL,
  0x5c020123156000fcUL, 0x0000000000088000UL, 0x0000e0ff0000000fUL, 0x00000000000383ffUL,
  0x070403f100000000UL, 0x5c0c004300000001UL, 0x2042204200000000UL, 0x000000015c0b7c00UL,
  0xffa61e7f5d001003UL, 0xff8b1fca0000903bUL, 0xff0c1c6c0000217bUL, 0xfe7326ef00003bb6UL,
  0xfef03bad0000c5a5UL, 0xfea92c0100004ef6UL, 0xff4126290000bc36UL, 0xffb5278100006f80UL,
  0x004c330300009282UL, 0xfff6241d000013abUL, 0xfdec687d000052deUL, 0xff091f3100007090UL,
  0xfe122ef500005dd9UL, 0xff05275d00004bf8UL, 0xff442e8c000061c7UL, 0xfe3828ab000083ccUL,
  0xff93211b0000da60UL, 0xff0c16810000d5f8UL, 0x005527030000a5a8UL, 0xffce33740000d312UL,
  0xfe562b9600003d3aUL, 0xfe9318ca0000e7d6UL, 0xfebc1a6900005ae1UL, 0x00601bb40000cef5UL,
  0xff1422bf00004865UL, 0xfeee2bc600007634UL, 0xfdf534da00000920UL, 0xfe01421d0000f9f9UL,
  0xfeac296e00004c6fUL, 0xff7525ba0000ee7dUL, 0xfdb61e1800002049UL, 0xff0727e60000debcUL,
  0xffed1a960000969fUL, 0xfed422720000771cUL, 0xff2d1ddd0000f115UL, 0xfe4e38260000a483UL,
  0x0024246a00001bc3UL, 0xff33266c0000db50UL, 0xff193d620000fc4dUL, 0xff0020a500001da7UL,
  0xff14207c000030f7UL, 0xfe2826180000f037UL, 0xff1b26500000e9d6UL, 0xfe8e250100003356UL,
  0xffbd23ce0000e0baUL, 0xfe7829b10000c90aUL, 0xfeed36ab0000d1ccUL, 0xfeef3b63000079a8UL,
  0x005c3bb3000039bcUL, 0xff04242e00006ff9UL, 0xfec430c60000345eUL, 0xff3b271f000026ebUL,
  0xfd2c56bb00002fe8UL, 0xffa5215f000056efUL, 0xffa62a0f00002515UL, 0xff2938550000d379UL,
  0xff4229fb0000fcd2UL, 0xff1915db0000bb04UL, 0xfffa270900007c60UL, 0xfe383a3200007f98UL,
  0xfeaf3634000046edUL, 0xff0319a4000080f5UL, 0xffd9208d0000e806UL, 0xff4b2d260000ecf2UL,
  0x008022810000b4abUL, 0x0800000064000042UL, 0x64027c0015000000UL, 0x6407004300070000UL,
  0x0000002000004000UL, 0x00000000640c0043UL, 0x0080226110411041UL, 0x0800000060000042UL,
  0x60027c0015000000UL, 0x6007004300070000UL, 0x0000002000004000UL, 0x00000000600c0043UL,
  0x008020a110411041UL, 0x0888030028007c00UL, 0x342e000028020043UL, 0x280500c300009600UL,
  0x0000000000000000UL, 0x0001c20000000004UL, 0x0010000000000024UL, 0x00000006280c0042UL,
  0x280d004300000007UL, 0x342fc23f00000004UL, 0x0000000028110043UL, 0x0080212100000000UL,
  0x0888018438007c00UL, 0x70495d8038020043UL, 0x380500c3000002acUL, 0x0000000000000000UL,
  0x0000000000000000UL, 0x0010000000000024UL, 0x00000006380c0042UL, 0x380d004300000007UL,
  0x704965c700000001UL, 0x0000000038110043UL, 0x0080204100000008UL, 0x000801081c007c00UL,
  0x342000001c020043UL, 0x1c0500c30000e100UL, 0x0000e10000000000UL, 0x0000000000000000UL,
  0x0010000000000024UL, 0x000000061c0c0042UL, 0x1c0d004300000007UL, 0x3423843f00000004UL,
  0x000000001c110043UL, 0x0080206100000000UL, 0x0008010820007c00UL, 0x3427000020020043UL,
  0x200500c30000e100UL, 0x0000e10000000000UL, 0x0000000000000000UL, 0x0010000000000024UL,
  0x00000006200c0042UL, 0x200d004300000007UL, 0x342a843f00000004UL, 0x0000000020110043UL,
  0x10007c0000000000UL, 0x1000042400000002UL, 0x0000000000000064UL, 0x4000000010007c00UL,
  0x0000006410007bc4UL, 0x10007c0000000000UL, 0x1004004300000001UL, 0x0000002700000029UL,
  0x0000000b10120043UL, 0x101e7c0000000013UL, 0x10207c0000000019UL, 0x10227c0000000025UL,
  0x1c00200100000025UL, 0x44007c0020002001UL, 0x5c00200110d00035UL, 0x6400200160002001UL,
  0x3800200128002001UL, 0x000000641c007fe4UL, 0x20007fe400000000UL, 0x0000000000000064UL,
  0x0000000010040043UL, 0x1012004300000000UL, 0x0000000000000000UL, 0x00000000101e7c00UL,
  0x0000000010207c00UL, 0x0000000010227c00UL, 0x000000021c007c00UL, 0x000000641c000424UL,
  0x1c007c0000000000UL, 0x1c007bc440000000UL, 0x0000000000000064UL, 0x20007c0000800041UL,
  0x2000042400000002UL, 0x0000000000000064UL, 0x4000000020007c00UL, 0x0000006420007bc4UL,
  0x0080006100000000UL, 0x0000000244007c00UL, 0x0000006444000424UL, 0x44007c0000000000UL,
  0x44007bc440000000UL, 0x0000000000000064UL, 0x5c007c0000800181UL, 0x5c00042408000002UL,
  0x0000000000000064UL, 0x480000005c007c00UL, 0x000000645c007bc4UL, 0x0080024100000000UL,
  0x0800000260007c00UL, 0x0000006460000424UL, 0x60007c0000000000UL, 0x60007bc448000000UL,
  0x0000000000000064UL, 0x64007c0000800261UL, 0x6400042408000002UL, 0x0000000000000064UL,
  0x4800000064007c00UL, 0x0000006464007bc4UL, 0x0080028100000000UL, 0x0000000228007c00UL,
  0x0000006428000424UL, 0x28007c0000000000UL, 0x28007bc440000000UL, 0x0000000000000064UL,
  0x38007c00008000a1UL, 0x3800042400000002UL, 0x0000000000000064UL, 0x4000000038007c00UL,
  0x0000006438007bc4UL, 0x0080012100000000UL, 0x008021a1000002bdUL, 0x0010003448007c00UL,
  0x10100101480200e3UL, 0x1077400300001100UL, 0x03bf0000003c03c0UL, 0x000f0040003b0000UL,
  0x00000000480a7c00UL, 0x00000000480d7c00UL, 0x3c007c0000802141UL, 0x3c0200e300100020UL,
  0x0000110010100101UL, 0x003c03c010774000UL, 0x003b000003bf0000UL, 0x3c0a7c00001f1040UL,
  0x3c0d7c0000000000UL, 0x0080216100000000UL, 0x0010002040007c00UL, 0x10100101400200e3UL,
  0x1077400000001100UL, 0x03bf0000003c03c0UL, 0x002f2040003b0000UL, 0x00000000400a7c00UL,
  0x00000000400d7c00UL, 0x44007c0000802181UL, 0x440200e300100020UL, 0x0000110010100101UL,
  0x003c03c010634300UL, 0x003b000003bf0000UL, 0x440a7c00003f3040UL, 0x440d7c0000000000UL,
  0x0080208100000000UL, 0x0008010024007c00UL, 0x3420000024020043UL, 0x240500c30000e100UL,
  0x0003840000000000UL, 0x0000000000000001UL, 0x0010000000000024UL, 0x00000006240c0042UL,
  0x240d004300000007UL, 0x3423843f00000002UL, 0x0000000024110043UL, 0x0080206100000000UL,
  0x0008018420007c00UL, 0x70496d9020020043UL, 0x200500c300000800UL, 0x0000000000000000UL,
  0x0000000000000000UL, 0x0010000000000024UL, 0x00000006200c0042UL, 0x200d004300000007UL,
  0x704975cf00000001UL, 0x0000000020110043UL, 0x008020e100000008UL, 0x0008010030007c00UL,
  0x3420e10030020043UL, 0x300500c30000e100UL, 0x0003840000000000UL, 0x0000000000000001UL,
  0x0010000000000024UL, 0x00000006300c0042UL, 0x300d004300000007UL, 0x3423843f00000002UL,
  0x0000000030110043UL, 0x0080212100000000UL, 0x0008010038007c00UL, 0x3421c20038020043UL,
  0x380500c30000e100UL, 0x0003840000000000UL, 0x0000000000000001UL, 0x0010000000000024UL,
  0x00000006380c0042UL, 0x380d004300000007UL, 0x3423843f00000002UL, 0x0000000038110043UL,
  0x0080200100000000UL, 0x0008010014007c00UL, 0x3422a30014020043UL, 0x140500c30000e100UL,
  0x0003840000000000UL, 0x0000000000000001UL, 0x0010000000000024UL, 0x00000006140c0042UL,
  0x140d004300000007UL, 0x3423843f00000002UL, 0x0000000014110043UL, 0x008020c100000000UL,
  0x008801082c007c00UL, 0x342e00002c020043UL, 0x2c0500c30000e100UL, 0x0001c20000000000UL,
  0x0000000000000000UL, 0x0010000000000024UL, 0x000000062c0c0042UL, 0x2c0d004300000007UL,
  0x3431843f00000002UL, 0x000000002c110043UL, 0x10007c0000000000UL, 0x1000042400000002UL,
  0x0000000000000064UL, 0x4000000010007c00UL, 0x0000006410007bc4UL, 0x10007c0000000000UL,
  0x10087c0000000001UL, 0x100c016300000019UL, 0x000000070000000fUL, 0x000000130000001bUL,
  0x0000001500000007UL, 0x0000000700000001UL, 0x0000000900000017UL, 0x2c00200100000007UL,
  0x001000213c007c00UL, 0x0010002140007c00UL, 0x0010002144007c00UL, 0x0010003548007c00UL,
  0x2000200114002001UL, 0x3000200124002001UL, 0x2c007fe438002001UL, 0x0000000000000064UL,
  0x0000000010087c00UL, 0x00000000100c0163UL, 0x0000000000000000UL, 0x0000000000000000UL,
  0x0000000000000000UL, 0x0000000000000000UL, 0x0000000000000000UL, 0x000000022c007c00UL,
  0x000000642c000424UL, 0x2c007c0000000000UL, 0x2c007bc440000000UL, 0x0000000000000064UL,
  0x3c007c00008000c1UL, 0x3c00042400000002UL, 0x0000000000000064UL, 0x400000003c007c00UL,
  0x000000643c007bc4UL, 0x0080014100000000UL, 0x0000000240007c00UL, 0x0000006440000424UL,
  0x40007c0000000000UL, 0x40007bc440000000UL, 0x0000000000000064UL, 0x44007c0000800161UL,
  0x4400042400000002UL, 0x0000000000000064UL, 0x4000000044007c00UL, 0x0000006444007bc4UL,
  0x0080018100000000UL, 0x0000000248007c00UL, 0x0000006448000424UL, 0x48007c0000000000UL,
  0x48007bc440000000UL, 0x0000000000000064UL, 0x14007c00008001a1UL, 0x1400042400000002UL,
  0x0000000000000064UL, 0x4000000014007c00UL, 0x0000006414007bc4UL, 0x0080000100000000UL,
  0x0000000220007c00UL, 0x0000006420000424UL, 0x20007c0000000000UL, 0x20007bc440000000UL,
  0x0000000000000064UL, 0x24007c0000800061UL, 0x2400042400000002UL, 0x0000000000000064UL,
  0x4000000024007c00UL, 0x0000006424007bc4UL, 0x0080008100000000UL, 0x0000000230007c00UL,
  0x0000006430000424UL, 0x30007c0000000000UL, 0x30007bc440000000UL, 0x0000000000000064UL,
  0x38007c00008000e1UL, 0x3800042400000002UL, 0x0000000000000064UL, 0x4000000038007c00UL,
  0x0000006438007bc4UL, 0x0080012100000000UL, 0x00802141000002ddUL, 0x001000343c007c00UL,
  0x101001013c0200e3UL, 0x1077400400001100UL, 0x03bf0000003c03c0UL, 0x000f0040003b0000UL,
  0x000000003c0a7c00UL, 0x000000003c0d7c00UL, 0x40007c0000802161UL, 0x400200e300100020UL,
  0x0000110010100101UL, 0x003c03c010774000UL, 0x003b000003bf0000UL, 0x400a7c00001f1040UL,
  0x400d7c0000000000UL, 0x0080218100000000UL, 0x0010002044007c00UL, 0x10100101440200e3UL,
  0x1077400000001100UL, 0x03bf0000003c03c0UL, 0x002f2040003b0000UL, 0x00000000440a7c00UL,
  0x00000000440d7c00UL, 0x48007c00008021a1UL, 0x480200e300100020UL, 0x0000110010100101UL,
  0x003c03c010634400UL, 0x003b000003bf0000UL, 0x480a7c00003f3040UL, 0x480d7c0000000000UL,
  0x008022a100000000UL, 0x0800000068000042UL, 0x68020123356000fcUL, 0x00000000000a0000UL,
  0x0000e0ff0000000fUL, 0x000000000001c1ffUL, 0x078403f100000000UL, 0x680c006300000001UL,
  0x2042204200000000UL, 0x680b7c00ff80ffb1UL, 0x6900080300000001UL, 0x00006394f76e2347UL,
  0x0000f335f6905385UL, 0x00008f01f86e255cUL, 0x0000abbff8ad3f62UL, 0x0000c053f8ec3dddUL,
  0x0000c0ddf9083fc0UL, 0x00004579f7de3027UL, 0x0000bef5f88b40edUL, 0x00004e31f7851e8cUL,
  0x00004b29f793280cUL, 0x00002fe6f9f23899UL, 0x0000b020f8342c7bUL, 0x00007654f81026aaUL,
  0x00000daaf6fe234eUL, 0x0000dd7ff8371f25UL, 0x0000685ef8274220UL, 0x0000127ff8973469UL,
  0x000090fff86b2e3eUL, 0x0000aa2ef8d4507cUL, 0x0000f2b6f85f3094UL, 0x0000ff22f7943d70UL,
  0x00000d8ff8be2709UL, 0x00005c80f7ef2811UL, 0x00005122f8cd3203UL, 0x000029cdf84d20ceUL,
  0x0000bc55f876249eUL, 0x00006a98f80d3097UL, 0x0000baa4f9042391UL, 0x00002729f89c3b8cUL,
  0x0000691cf8752da5UL, 0x000005edf7bb40f3UL, 0x00006bc3f91a45f8UL, 0x5c00004200802241UL,
  0x156000fc08000000UL, 0x000980005c020123UL, 0x0000000f00000000UL, 0x0001c1ff0000e0ffUL,
  0x0000000000000000UL, 0x00000001078403f1UL, 0x000000005c0c0043UL, 0x5c0b7c0020422042UL,
  0x5d00080300000001UL, 0x00007ec2f7c45ed1UL, 0x0000b0f7ff33247cUL, 0x0000f85bfadf1d4cUL,
  0x000073d3fb5623deUL, 0x00002d27fb7c26cdUL, 0x00002a0cfbec2044UL, 0x0000ec8bfbd22966UL,
  0x0000f56ffc9d3718UL, 0x00001a62fe922b44UL, 0x0000f6a0fdbe29d0UL, 0x0000923ffca62c7aUL,
  0x00003fcefd3429b0UL, 0x0000cc60fda03926UL, 0x00003af2fc9a2b63UL, 0x000062a8fbd420b5UL,
  0x0000f623fd3d2e2aUL, 0x0000f9b3fc5b254bUL, 0x0000774efc992a96UL, 0x00008cb2fd501936UL,
  0x0000d107fd6a2e58UL, 0x00006446fb541eddUL, 0x0000acd1fc8028c6UL, 0x000042ecfc9a33b5UL,
  0x00009836fb672d91UL, 0x00001200ff4423d1UL, 0x00003d1dfd592992UL, 0x0000f1d5fd0d29efUL,
  0x0000636dfcfc27e2UL, 0x0000671cfcdc2806UL, 0x0000420bfc7743a8UL, 0x0000366cfd4a19d4UL,
  0x00006677fc201df9UL, 0x6000004200802261UL, 0x1500000008000000UL, 0x0007000060027c00UL,
  0x0000400060070043UL, 0x600c004300000020UL, 0x1041104100000000UL, 0x14007c0000802001UL,
  0x1402004300080100UL, 0x0000e10034270000UL, 0x00000000140500c3UL, 0x0000000100038400UL,
  0x0000002400000000UL, 0x140c004200100000UL, 0x0000000700000006UL, 0x00000002140d0043UL,
  0x14110043342a843fUL, 0x0000000000000000UL, 0x38007c0000802121UL, 0x3802004300080184UL,
  0x0000080070496590UL, 0x00000000380500c3UL, 0x0000000000000000UL, 0x0000002400000000UL,
  0x380c004200100000UL, 0x0000000700000006UL, 0x00000001380d0043UL, 0x3811004370496dcfUL,
  0x0000000800000000UL, 0x18007c0000802021UL, 0x1802004300080100UL, 0x0000e1003427e100UL,
  0x00000000180500c3UL, 0x0000000100038400UL, 0x0000002400000000UL, 0x180c004200100000UL,
  0x0000000700000006UL, 0x00000002180d0043UL, 0x18110043342a843fUL, 0x0000000000000000UL,
  0x20007c0000802061UL, 0x2002004300080100UL, 0x0000e1003428c200UL, 0x00000000200500c3UL,
  0x0000000100038400UL, 0x0000002400000000UL, 0x200c004200100000UL, 0x0000000700000006UL,
  0x00000002200d0043UL, 0x20110043342a843fUL, 0x0000000000000000UL, 0x2c007c00008020c1UL,
  0x2c02004300080100UL, 0x0000e1003429a300UL, 0x000000002c0500c3UL, 0x0000000100038400UL,
  0x0000002400000000UL, 0x2c0c004200100000UL, 0x0000000700000006UL, 0x000000022c0d0043UL,
  0x2c110043342a843fUL, 0x0000000000000000UL, 0x1c007c0000802041UL, 0x1c02004300880100UL,
  0x0000e100342e0000UL, 0x000000001c0500c3UL, 0x000000000001c200UL, 0x0000002400000000UL,
  0x1c0c004200100000UL, 0x0000000700000006UL, 0x000000021c0d0043UL, 0x1c1100433431843fUL,
  0x0000000000000000UL, 0x30007c00008020e1UL, 0x3002004300080108UL, 0x0000e1003421c200UL,
  0x00000000300500c3UL, 0x000000000000e100UL, 0x0000002400000000UL, 0x300c004200100000UL,
  0x0000000700000006UL, 0x00000002300d0043UL, 0x301100433423843fUL, 0x0000000000000000UL,
  0x34007c0000802101UL, 0x3402004300080108UL, 0x0000e10034318400UL, 0x00000000340500c3UL,
  0x000000000000e100UL, 0x0000002400000000UL, 0x340c004200100000UL, 0x0000000700000006UL,
  0x00000002340d0043UL, 0x341100433433463fUL, 0x0000000000000000UL, 0x28007c00008020a1UL,
  0x2802012300080008UL, 0x003c003c342a8400UL, 0x0000078000200010UL, 0x0000000200000010UL,
  0x000000240001c200UL, 0x280c004200100000UL, 0x0000000700000006UL, 0x00000002280d0043UL,
  0x28110043342c463fUL, 0x0000000000000000UL, 0x0000000210007c00UL, 0x0000006410000424UL,
  0x10007c0000000000UL, 0x10007bc440000000UL, 0x0000000000000064UL, 0x0000000110007c00UL,
  0x0000002710077c00UL, 0x0000002b10090043UL, 0x100c004300000025UL, 0x0000001300000001UL,
  0x00000003100f0123UL, 0x0000001500000013UL, 0x0000001300000007UL, 0x0000000d00000017UL,
  0x0000001900000013UL, 0x00000005101e7c00UL, 0x0000002510207c00UL, 0x0000001b10247c00UL,
  0x3000200128002001UL, 0x3c007c0034002001UL, 0x40007c0000100035UL, 0x44007c0000100021UL,
  0x48007c0000100021UL, 0x5c00200100100021UL, 0x6800200160002001UL, 0x1800200114002001UL,
  0x200020011c002001UL, 0x380020012c002001UL, 0x0000006428007fe4UL, 0x30007fe400000000UL,
  0x0000000000000064UL, 0x0000006434007fe4UL, 0x10077c0000000000UL, 0x1009004300000000UL,
  0x0000000000000000UL, 0x00000000100c0043UL, 0x100f012300000000UL, 0x0000000000000000UL,
  0x0000000000000000UL, 0x0000000000000000UL, 0x0000000000000000UL, 0x101e7c0000000000UL,
  0x10207c0000000000UL, 0x10247c0000000000UL, 0x28007c0000000000UL, 0x2800042400000002UL,
  0x0000000000000064UL, 0x4000000028007c00UL, 0x0000006428007bc4UL, 0x008000a100000000UL,
  0x0000000230007c00UL, 0x0000006430000424UL, 0x30007c0000000000UL, 0x30007bc440000000UL,
  0x0000000000000064UL, 0x34007c00008000e1UL, 0x3400042400000002UL, 0x0000000000000064UL,
  0x4000000034007c00UL, 0x0000006434007bc4UL, 0x0080010100000000UL, 0x000000023c007c00UL,
  0x000000643c000424UL, 0x3c007c0000000000UL, 0x3c007bc440000000UL, 0x0000000000000064UL,
  0x40007c0000800141UL, 0x4000042400000002UL, 0x0000000000000064UL, 0x4000000040007c00UL,
  0x0000006440007bc4UL, 0x0080016100000000UL, 0x0000000244007c00UL, 0x0000006444000424UL,
  0x44007c0000000000UL, 0x44007bc440000000UL, 0x0000000000000064UL, 0x48007c0000800181UL,
  0x4800042400000002UL, 0x0000000000000064UL, 0x4000000048007c00UL, 0x0000006448007bc4UL,
  0x008001a100000000UL, 0x080000025c007c00UL, 0x000000645c000424UL, 0x5c007c0000000000UL,
  0x5c007bc448000000UL, 0x0000000000000064UL, 0x60007c0000800241UL, 0x6000042408000002UL,
  0x0000000000000064UL, 0x4800000060007c00UL, 0x0000006460007bc4UL, 0x0080026100000000UL,
  0x0800000268007c00UL, 0x0000006468000424UL, 0x68007c0000000000UL, 0x68007bc448000000UL,
  0x0000000000000064UL, 0x14007c00008002a1UL, 0x1400042400000002UL, 0x0000000000000064UL,
  0x4000000014007c00UL, 0x0000006414007bc4UL, 0x0080000100000000UL, 0x0000000218007c00UL,
  0x0000006418000424UL, 0x18007c0000000000UL, 0x18007bc440000000UL, 0x0000000000000064UL,
  0x1c007c0000800021UL, 0x1c00042400000002UL, 0x0000000000000064UL, 0x400000001c007c00UL,
  0x000000641c007bc4UL, 0x0080004100000000UL, 0x0000000220007c00UL, 0x0000006420000424UL,
  0x20007c0000000000UL, 0x20007bc440000000UL, 0x0000000000000064UL, 0x2c007c0000800061UL,
  0x2c00042400000002UL, 0x0000000000000064UL, 0x400000002c007c00UL, 0x000000642c007bc4UL,
  0x008000c100000000UL, 0x0000000238007c00UL, 0x0000006438000424UL, 0x38007c0000000000UL,
  0x38007bc440000000UL, 0x0000000000000064UL, 0x000002fd00800121UL, 0x3c007c0000802141UL,
  0x3c0200e310d00034UL, 0x0000110010200101UL, 0x003c078010e34404UL, 0x003b0000077f0000UL,
  0x3c0a7c0000000001UL, 0x3c0d7c0000000000UL, 0x0080228100000000UL, 0x0800000064000042UL,
  0x64020123156000fcUL, 0x0000000000098000UL, 0x0000e0ff0000000fUL, 0x000000000001c1ffUL,
  0x078403f100000000UL, 0x640c004300000001UL, 0x2042204200000000UL, 0x00000001640b7c00UL,
  0xfc89441265000803UL, 0xfd9a249b0000bd15UL, 0xfbda3c090000ebb1UL, 0xfe3f14250000eab2UL,
  0xfc6841010000ed27UL, 0xfd6533830000c1b3UL, 0xfd0a36400000b5d5UL, 0xf85952d600006ac1UL,
  0xfdf55339000039b7UL, 0xfe4121c40000ff8aUL, 0xfc8e43600000393fUL, 0xf9686ee40000d057UL,
  0xfcd645a30000ce3cUL, 0xfe4d1aac0000eee5UL, 0xfc645a350000c309UL, 0xfbd25f0700003fcfUL,
  0xfeae4b7900008d03UL, 0xfd60326d00009d16UL, 0xfba14fef0000a984UL, 0xfd0a1a8000009a94UL,
  0xfd652b7b00000649UL, 0xfd8d534d0000cbdcUL, 0xfcb13b2d00003ce6UL, 0xf7aa407700002a4dUL,
  0xfc13256800003bdfUL, 0xfbe2350200009de0UL, 0xfd2e0de20000f576UL, 0xfbb963b3000023a6UL,
  0xfd13242900003dfaUL, 0xf9aa7c1f0000f2e1UL, 0xfb752bba00008b1aUL, 0xfda62c1c000032f9UL,
  0x00802241000065c9UL, 0x080000005c000042UL, 0x5c027c0015000000UL, 0x5c07004300070000UL,
  0x0000002000004000UL, 0x000000005c0c0043UL, 0x0080212110411041UL, 0x0888030038007c00UL,
  0x342a840038020043UL, 0x380500c300009600UL, 0x0000000000000000UL, 0x0001c20000000002UL,
  0x0010000000000024UL, 0x00000006380c0042UL, 0x380d004300000007UL, 0x342c463f00000002UL,
  0x0000000038110043UL, 0x0080204100000000UL, 0x088801841c007c00UL, 0x7049cce01c020043UL,
  0x1c0500c300000156UL, 0x0000000000000000UL, 0x0000000000000000UL, 0x0010000000000024UL,
  0x000000061c0c0042UL, 0x1c0d004300000007UL, 0x7049d12700000001UL, 0x000000001c110043UL,
  0x0080206100000008UL, 0x0008000820007c00UL, 0x342e000020020123UL, 0x00200010003c003cUL,
  0x0000001000000780UL, 0x0001c20000000002UL, 0x0010000000000024UL, 0x00000006200c0042UL,
  0x200d004300000007UL, 0x342fc23f00000002UL, 0x0000000020110043UL, 0x10007c0000000000UL,
  0x1000042400000002UL, 0x0000000000000064UL, 0x4000000010007c00UL, 0x0000006410007bc4UL,
  0x10007c0000000000UL, 0x10057c0000000001UL, 0x100c004300000025UL, 0x0000000500000013UL,
  0x00000029101e7c00UL, 0x0000001510227c00UL, 0x3c007c0020002001UL, 0x5c00200110d00035UL,
  0x1c00200164002001UL, 0x20007fe438002001UL, 0x0000000000000064UL, 0x0000000010057c00UL,
  0x00000000100c0043UL, 0x101e7c0000000000UL, 0x10227c0000000000UL, 0x20007c0000000000UL,
  0x2000042400000002UL, 0x0000000000000064UL, 0x4000000020007c00UL, 0x0000006420007bc4UL,
  0x0080006100000000UL, 0x000000023c007c00UL, 0x000000643c000424UL, 0x3c007c0000000000UL,
  0x3c007bc440000000UL, 0x0000000000000064UL, 0x5c007c0000800141UL, 0x5c00042408000002UL,
  0x0000000000000064UL, 0x480000005c007c00UL, 0x000000645c007bc4UL, 0x0080024100000000UL,
  0x0800000264007c00UL, 0x0000006464000424UL, 0x64007c0000000000UL, 0x64007bc448000000UL,
  0x0000000000000064UL, 0x1c007c0000800281UL, 0x1c00042400000002UL, 0x0000000000000064UL,
  0x400000001c007c00UL, 0x000000641c007bc4UL, 0x0080004100000000UL, 0x0000000238007c00UL,
  0x0000006438000424UL, 0x38007c0000000000UL, 0x38007bc440000000UL, 0x0000000000000064UL,
  0x0000031d00800121UL, 0x40007c0000802161UL, 0x400200e300100034UL, 0x0000115504040303UL,
  0x003c00f010634303UL, 0x003b000000ef0000UL, 0x400a7c0000000001UL, 0x400d7c0000000000UL,
  0x0080226100000000UL, 0x0800000060000042UL, 0x60020123156000fcUL, 0x0000000000080000UL,
  0x0000383f00000003UL, 0x000000000001c1ffUL, 0x078403fd00000000UL, 0x600c004300000001UL,
  0x2042204200000000UL, 0x00000001600b7c00UL, 0xff7d27e561000803UL, 0xff923e07000009fcUL,
  0xffba0d1f00008921UL, 0x003f26d800007a0dUL, 0xff862adc00007e7bUL, 0xff6a52190000f80dUL,
  0xff73234400002703UL, 0xff7c0aae0000cee9UL, 0xff7f11130000f315UL, 0xff70342a00008a9fUL,
  0xff79259000007cf0UL, 0xff8e09b400001134UL, 0xff6c2978000046f8UL, 0xff63208a00008012UL,
  0xffc50439000082f4UL, 0xff701cc90000579eUL, 0xff86156b0000d5d3UL, 0xff6d43bc0000f992UL,
  0xff7e31f900008b79UL, 0xff80553700009bf2UL, 0xff9136890000154dUL, 0xff6218d900001859UL,
  0xff7715080000b061UL, 0xff5e07000000b119UL, 0xffa41bbe00009ba8UL, 0xff861c910000203eUL,
  0xff8031d20000c3efUL, 0xff8535970000a1e9UL, 0xff8f34180000a6f0UL, 0xff7a0dec0000a4bdUL,
  0xff7f1c7b0000583cUL, 0xff921b4b0000fc70UL, 0x008022a1000052dcUL, 0x0800000068000042UL,
  0x68027c0015000000UL, 0x6807004300070000UL, 0x0000002000004000UL, 0x00000000680c0043UL,
  0x0080210110411041UL, 0x0008000034007c00UL, 0x342e000034020123UL, 0x00200004003c003cUL,
  0x0000000000000780UL, 0x0000000400000001UL, 0x0010000000000024UL, 0x00000006340c0042UL,
  0x340d004300000007UL, 0x342fc23f00000008UL, 0x0000000034110043UL, 0x0080200100000000UL,
  0x0008018414007c00UL, 0x704980d014020043UL, 0x140500c300000480UL, 0x0000000000000000UL,
  0x0000000000000000UL, 0x0010000000000024UL, 0x00000006140c0042UL, 0x140d004300000007UL,
  0x7049858f00000001UL, 0x0000000014110043UL, 0x0080208100000008UL, 0x0008000824007c00UL,
  0x3427000024020123UL, 0x00200004003c003cUL, 0x0000000400000780UL, 0x0001c20000000008UL,
  0x0010000000000024UL, 0x00000006240c0042UL, 0x240d004300000007UL, 0x3428c23f00000008UL,
  0x0000000024110043UL, 0x10007c0000000000UL, 0x1000042400000002UL, 0x0000000000000064UL,
  0x4000000010007c00UL, 0x0000006410007bc4UL, 0x10007c0000000000UL, 0x10067c0000000001UL,
  0x100f00430000002bUL, 0x0000000100000011UL, 0x0000001710207c00UL, 0x0000002710247c00UL,
  0x40007c0024002001UL, 0x6000200100100035UL, 0x1400200168002001UL, 0x24007fe434002001UL,
  0x0000000000000064UL, 0x0000000010067c00UL, 0x00000000100f0043UL, 0x10207c0000000000UL,
  0x10247c0000000000UL, 0x24007c0000000000UL, 0x2400042400000002UL, 0x0000000000000064UL,
  0x4000000024007c00UL, 0x0000006424007bc4UL, 0x0080008100000000UL, 0x0000000240007c00UL,
  0x0000006440000424UL, 0x40007c0000000000UL, 0x40007bc440000000UL, 0x0000000000000064UL,
  0x60007c0000800161UL, 0x6000042408000002UL, 0x0000000000000064UL, 0x4800000060007c00UL,
  0x0000006460007bc4UL, 0x0080026100000000UL, 0x0800000268007c00UL, 0x0000006468000424UL,
  0x68007c0000000000UL, 0x68007bc448000000UL, 0x0000000000000064UL, 0x14007c00008002a1UL,
  0x1400042400000002UL, 0x0000000000000064UL, 0x4000000014007c00UL, 0x0000006414007bc4UL,
  0x0080000100000000UL, 0x0000000234007c00UL, 0x0000006434000424UL, 0x34007c0000000000UL,
  0x34007bc440000000UL, 0x0000000000000064UL, 0x0000033d00800101UL, 0x44007c0000802181UL,
  0x440200e310d00034UL, 0x0000110010200101UL, 0x003c078010e34303UL, 0x003b0000077f0000UL,
  0x440a7c0000000001UL, 0x440d7c0000000000UL, 0x0080224100000000UL, 0x080000005c000042UL,
  0x5c020123156000fcUL, 0x0000000000098000UL, 0x0000e0ff0000000fUL, 0x000000000001c1ffUL,
  0x078403f100000000UL, 0x5c0c004300000001UL, 0x2042204200000000UL, 0x000000015c0b7c00UL,
  0x00b95a805d000803UL, 0xfc0e2b6c000022adUL, 0xfc8038970000cc74UL, 0xfb6518f60000c4b8UL,
  0xfc5b46ef00000c19UL, 0xfc7c2a0a000016eeUL, 0xfd2b33b70000d990UL, 0xfbb828d400001b45UL,
  0xfce72aa9000063a8UL, 0xfc1b2a0700008827UL, 0xfcf21cd9000094d8UL, 0xfcf9109f0000770bUL,
  0xfd9c1ee60000a1dcUL, 0xfe262ad100006231UL, 0xfc61230500006b68UL, 0xfc842f8900004bdaUL,
  0xfbc12adc0000b7a0UL, 0xfca325630000723aUL, 0xfe012b9d00000cb3UL, 0xfbd728be0000f2bbUL,
  0xfd0d349e0000cbd2UL, 0xfd45233e0000136cUL, 0xfd091c2200005765UL, 0xfccc1df100006c3fUL,
  0xfcc822520000a8f2UL, 0xfe0026530000bcd5UL, 0xfcec2e0200003abdUL, 0xfd552f1b0000ccbeUL,
  0xfea733ed0000e53bUL, 0xfcde13180000c212UL, 0xfc831375000092e9UL, 0xfd541e890000dc35UL,
  0x0080228100007772UL, 0x0800000064000042UL, 0x64027c0005000160UL, 0x6407004300079000UL,
  0x000044c44c3f44c4UL, 0x00000000640c0043UL, 0x0080226110411041UL, 0x0800000060000042UL,
  0x60027c0015000000UL, 0x6007004300070000UL, 0x0000002000004000UL, 0x00000000600c0043UL,
  0x0080208110411041UL, 0x0888030024007c00UL, 0x3427000024020043UL, 0x240500c300009600UL,
  0x0000000000000000UL, 0x0001c20000000002UL, 0x0010000000000024UL, 0x00000006240c0042UL,
  0x240d004300000007UL, 0x3428c23f00000002UL, 0x0000000024110043UL, 0x008020a100000000UL,
  0x0888018428007c00UL, 0x7049d0f028020043UL, 0x280500c300000156UL, 0x0000000000000000UL,
  0x0000000000000000UL, 0x0010000000000024UL, 0x00000006280c0042UL, 0x280d004300000007UL,
  0x7049d53700000001UL, 0x0000000028110043UL, 0x008020c100000008UL, 0x000801002c007c00UL,
  0x343184002c020043UL, 0x2c0500c30000e100UL, 0x0000e10000000000UL, 0x0000000000000000UL,
  0x0010000000000024UL, 0x000000062c0c0042UL, 0x2c0d004300000007UL, 0x3433463f00000002UL,
  0x000000002c110043UL, 0x0080204100000000UL, 0x000801081c007c00UL, 0x342e00001c020043UL,
  0x1c0500c30000e100UL, 0x0000e10000000000UL, 0x0000000000000000UL, 0x0010000000000024UL,
  0x000000061c0c0042UL, 0x1c0d004300000007UL, 0x342fc23f00000002UL, 0x000000001c110043UL,
  0x0080210100000000UL, 0x0008000834007c00UL, 0x342fc20034020123UL, 0x00200010003c003cUL,
  0x0000001000000780UL, 0x0001c20000000002UL, 0x0010000000000024UL, 0x00000006340c0042UL,
  0x340d004300000007UL, 0x3431843f00000002UL, 0x0000000034110043UL, 0x10007c0000000000UL,
  0x1000042400000002UL, 0x0000000000000064UL, 0x4000000010007c00UL, 0x0000006410007bc4UL,
  0x10007c0000000000UL, 0x10047c0000000001UL, 0x100a7c0000000029UL, 0x1012004300000027UL,
  0x0000000b00000009UL, 0x00000019101e7c00UL, 0x0000002910207c00UL, 0x0000000d10220043UL,
  0x1c00200100000025UL, 0x44007c0034002001UL, 0x5c00200110d00035UL, 0x6400200160002001UL,
  0x2800200124002001UL, 0x1c007fe42c002001UL, 0x0000000000000064UL, 0x0000006434007fe4UL,
  0x10047c0000000000UL, 0x100a7c0000000000UL, 0x1012004300000000UL, 0x0000000000000000UL,
  0x00000000101e7c00UL, 0x0000000010207c00UL, 0x0000000010220043UL, 0x1c007c0000000000UL,
  0x1c00042400000002UL, 0x0000000000000064UL, 0x400000001c007c00UL, 0x000000641c007bc4UL,
  0x0080004100000000UL, 0x0000000234007c00UL, 0x0000006434000424UL, 0x34007c0000000000UL,
  0x34007bc440000000UL, 0x0000000000000064UL, 0x44007c0000800101UL, 0x4400042400000002UL,
  0x0000000000000064UL, 0x4000000044007c00UL, 0x0000006444007bc4UL, 0x0080018100000000UL,
  0x080000025c007c00UL, 0x000000645c000424UL, 0x5c007c0000000000UL, 0x5c007bc448000000UL,
  0x0000000000000064UL, 0x60007c0000800241UL, 0x6000042408000002UL, 0x0000000000000064UL,
  0x4800000060007c00UL, 0x0000006460007bc4UL, 0x0080026100000000UL, 0x0800000264007c00UL,
  0x0000006464000424UL, 0x64007c0000000000UL, 0x64007bc448000000UL, 0x0000000000000064UL,
  0x24007c0000800281UL, 0x2400042400000002UL, 0x0000000000000064UL, 0x4000000024007c00UL,
  0x0000006424007bc4UL, 0x0080008100000000UL, 0x0000000228007c00UL, 0x0000006428000424UL,
  0x28007c0000000000UL, 0x28007bc440000000UL, 0x0000000000000064UL, 0x2c007c00008000a1UL,
  0x2c00042400000002UL, 0x0000000000000064UL, 0x400000002c007c00UL, 0x000000642c007bc4UL,
  0x008000c100000000UL, 0x008021a10000035dUL, 0x10d0003448007c00UL, 0x10200101480200e3UL,
  0x10e3430300001100UL, 0x077f0000003c0780UL, 0x00000001003b0000UL, 0x00000000480a7c00UL,
  0x00000000480d7c00UL, 0x68000042008022a1UL, 0x156000fc08000000UL, 0x0009000068020123UL,
  0x0000000f00000000UL, 0x0001c1ff0000e0ffUL, 0x0000000000000000UL, 0x00000001078403f1UL,
  0x00000000680c0043UL, 0x680b7c0020422042UL, 0x6900080300000001UL, 0x00006ec7ff950ec2UL,
  0x00007b36fe4559e4UL, 0x00004d27fed70c61UL, 0x0000f6b4ffb723a2UL, 0x00009a33fd6d1092UL,
  0x000050affe21363dUL, 0x0000eed0fd5c3e54UL, 0x000083c2fe8e0ae8UL, 0x0000c3a7fdb50d6cUL,
  0x00003fd4fd900e2dUL, 0x0000ddf5feb10dbaUL, 0x000095c5fd2f1befUL, 0x0000e595fe6410d2UL,
  0x0000be72fed418bfUL, 0x00006c4aff370beaUL, 0x00004da5fcf72ef4UL, 0x0000c8bafea72b46UL,
  0x00000c70ffbb1991UL, 0x0000d5e9ff02283dUL, 0x000030a9fd831778UL, 0x0000c111ffa52ac3UL,
  0x00000b44fe281301UL, 0x00006a3cfe4a0abcUL, 0x00009715014e55d9UL, 0x00002638fe1e1124UL,
  0x0000a8c0fdbf1433UL, 0x0000d5c1fe3524ecUL, 0x0000afebff6a1bc5UL, 0x0000b3a5fdd42692UL,
  0x0000bdf3fef61ea6UL, 0x0000be01fecf32e3UL, 0x0000374eff160c13UL, 0x5c00004200802241UL,
  0x1500000008000000UL, 0x000700005c027c00UL, 0x000040005c070043UL, 0x5c0c004300000020UL,
  0x1041104100000000UL, 0x34007c0000802101UL, 0x3402004308880300UL, 0x00009600342fc200UL,
  0x00000000340500c3UL, 0x0000000200000000UL, 0x000000240001c200UL, 0x340c004200100000UL,
  0x0000000700000006UL, 0x00000002340d0043UL, 0x341100433431843fUL, 0x0000000000000000UL,
  0x1c007c0000802041UL, 0x1c02004308880184UL, 0x000001567049d500UL, 0x000000001c0500c3UL,
  0x0000000000000000UL, 0x0000002400000000UL, 0x1c0c004200100000UL, 0x0000000700000006UL,
  0x000000011c0d0043UL, 0x1c1100437049d947UL, 0x0000000800000000UL, 0x20007c0000802061UL,
  0x2002012300080008UL, 0x003c003c34318400UL, 0x0000078000200010UL, 0x0000000200000010UL,
  0x000000240001c200UL, 0x200c004200100000UL, 0x0000000700000006UL, 0x00000002200d0043UL,
  0x201100433433463fUL, 0x0000000000000000UL, 0x0000000210007c00UL, 0x0000006410000424UL,
  0x10007c0000000000UL, 0x10007bc440000000UL, 0x0000000000000064UL, 0x0000000110007c00UL,
  0x0000002510057c00UL, 0x0000001110150043UL, 0x101e7c0000000005UL, 0x10247c000000002bUL,
  0x200020010000001bUL, 0x10d0003548007c00UL, 0x680020015c002001UL, 0x340020011c002001UL,
  0x0000006420007fe4UL, 0x10057c0000000000UL, 0x1015004300000000UL, 0x0000000000000000UL,
  0x00000000101e7c00UL, 0x0000000010247c00UL, 0x0000000220007c00UL, 0x0000006420000424UL,
  0x20007c0000000000UL, 0x20007bc440000000UL, 0x0000000000000064UL, 0x48007c0000800061UL,
  0x4800042400000002UL, 0x0000000000000064UL, 0x4000000048007c00UL, 0x0000006448007bc4UL,
  0x008001a100000000UL, 0x080000025c007c00UL, 0x000000645c000424UL, 0x5c007c0000000000UL,
  0x5c007bc448000000UL, 0x0000000000000064UL, 0x68007c0000800241UL, 0x6800042408000002UL,
  0x0000000000000064UL, 0x4800000068007c00UL, 0x0000006468007bc4UL, 0x008002a100000000UL,
  0x000000021c007c00UL, 0x000000641c000424UL, 0x1c007c0000000000UL, 0x1c007bc440000000UL,
  0x0000000000000064UL, 0x34007c0000800041UL, 0x3400042400000002UL, 0x0000000000000064UL,
  0x4000000034007c00UL, 0x0000006434007bc4UL, 0x0080010100000000UL, 0x008021410000037dUL,
  0x001000343c007c00UL, 0x040403033c0200e3UL, 0x1063430300001155UL, 0x00ef0000003c00f0UL,
  0x00000001003b0000UL, 0x000000003c0a7c00UL, 0x000000003c0d7c00UL, 0x6000004200802261UL,
  0x156000fc08000000UL, 0x0007800060020123UL, 0x0000000300000000UL, 0x0001c1ff0000383fUL,
  0x0000000000000000UL, 0x00000001078403fdUL, 0x00000000600c0043UL, 0x600b7c0020422042UL,
  0x6100080300000001UL, 0x0000055cffbd1468UL, 0x0000b84dffb6031cUL, 0x00000529ffce10f6UL,
  0x00009516ffc10855UL, 0x00001e26ffb26762UL, 0x0000fd1affbf07b9UL, 0x0000349cffb80422UL,
  0x0000fbbf005c147bUL, 0x000067d1ffd6150fUL, 0x0000bb0effbc18b5UL, 0x00000adeffd40f3fUL,
  0x0000d2d9ffd1058cUL, 0x0000211ffff90aa2UL, 0x00009c67ffd30b3eUL, 0x00009b06ffd21aaaUL,
  0x0000f275ffba049fUL, 0x0000b570ffce02c0UL, 0x0000cf41ffbe0b15UL, 0x00002e98ffb61bbcUL,
  0x0000e281ffbb0fa3UL, 0x000065b5ffa80a0eUL, 0x00000af2ffb80ff6UL, 0x0000f275ffbd19f4UL,
  0x0000231dffbe0943UL, 0x0000d4fbffb50c74UL, 0x0000bd5bffb006e2UL, 0x00006094ffd50b7eUL,
  0x0000cc41ffcc0837UL, 0x0000383dffc410e1UL, 0x0000fb9affcc0c65UL, 0x000005e8ffad08a7UL,
  0x0000e496ffc413baUL, 0x6400004200802281UL, 0x1500000008000000UL, 0x0007000064027c00UL,
  0x0000400064070043UL, 0x640c004300000020UL, 0x1041104100000000UL, 0x1c007c0000802041UL,
  0x1c02012300080000UL, 0x003c003c34318400UL, 0x0000078000200004UL, 0x0000000100000000UL,
  0x0000002400000004UL, 0x1c0c004200100000UL, 0x0000000700000006UL, 0x000000081c0d0043UL,
  0x1c1100433433463fUL, 0x0000000000000000UL, 0x20007c0000802061UL, 0x2002004300080184UL,
  0x0000048070498550UL, 0x00000000200500c3UL, 0x0000000000000000UL, 0x0000002400000000UL,
  0x200c004200100000UL, 0x0000000700000006UL, 0x00000001200d0043UL, 0x2011004370498a0fUL,
  0x0000000800000000UL, 0x38007c0000802121UL, 0x3802012300080008UL, 0x003c003c34270000UL,
  0x0000078000200004UL, 0x0000000800000004UL, 0x000000240001c200UL, 0x380c004200100000UL,
  0x0000000700000006UL, 0x00000008380d0043UL, 0x381100433428c23fUL, 0x0000000000000000UL,
  0x0000000210007c00UL, 0x0000006410000424UL, 0x10007c0000000000UL, 0x10007bc440000000UL,
  0x0000000000000064UL, 0x0000000110007c00UL, 0x00000029100b0063UL, 0x0000000700000005UL,
  0x0000001510207c00UL, 0x0000002710227c00UL, 0x3c007c0038002001UL, 0x6000200100100035UL,
  0x1c00200164002001UL, 0x38007fe420002001UL, 0x0000000000000064UL, 0x00000000100b0063UL,
  0x0000000000000000UL, 0x0000000010207c00UL, 0x0000000010227c00UL, 0x0000000238007c00UL,
  0x0000006438000424UL, 0x38007c0000000000UL, 0x38007bc440000000UL, 0x0000000000000064UL,
  0x3c007c0000800121UL, 0x3c00042400000002UL, 0x0000000000000064UL, 0x400000003c007c00UL,
  0x000000643c007bc4UL, 0x0080014100000000UL, 0x0800000260007c00UL, 0x0000006460000424UL,
  0x60007c0000000000UL, 0x60007bc448000000UL, 0x0000000000000064UL, 0x64007c0000800261UL,
  0x6400042408000002UL, 0x0000000000000064UL, 0x4800000064007c00UL, 0x0000006464007bc4UL,
  0x0080028100000000UL, 0x000000021c007c00UL, 0x000000641c000424UL, 0x1c007c0000000000UL,
  0x1c007bc440000000UL, 0x0000000000000064UL, 0x20007c0000800041UL, 0x2000042400000002UL,
  0x0000000000000064UL, 0x4000000020007c00UL, 0x0000006420007bc4UL, 0x0080006100000000UL,
  0x008021610000039dUL, 0x10d0003440007c00UL, 0x10200101400200e3UL, 0x10e3430300001100UL,
  0x077f0000003c0780UL, 0x00000001003b0000UL, 0x00000000400a7c00UL, 0x00000000400d7c00UL,
  0x5c00004200802241UL, 0x156000fc08000000UL, 0x000980005c020123UL, 0x0000000f00000000UL,
  0x0001c1ff0000e0ffUL, 0x0000000000000000UL, 0x00000001078403f1UL, 0x000000005c0c0043UL,
  0x5c0b7c0020422042UL, 0x5d00080300000001UL, 0x00007173fb60368eUL, 0x00007afafc1f1ad4UL,
  0x0000f1abfaef36e6UL, 0x00007b87fd132b85UL, 0x00005150fd7c2669UL, 0x00003c1ffd0f3429UL,
  0x00006ea2fe0119dcUL, 0x000081f8fc9a1e39UL, 0x0000e8fafb8a33a0UL, 0x00004dc7fb6e2d28UL,
  0x0000e8b6fb322225UL, 0x000051ecfb411ad8UL, 0x00007a78fd011dbbUL, 0x00007ed8fa922064UL,
  0x0000e0aefc412990UL, 0x00001289fc922b4eUL, 0x0000245dfb232548UL, 0x0000a3c7fce42f10UL,
  0x000023d9fcf13a05UL, 0x0000ec19fd043b65UL, 0x000031dbfd513953UL, 0x000040d1fc401f64UL,
  0x0000d6c5fccd1376UL, 0x00008b3bfcc922bfUL, 0x0000ab17fc891ed1UL, 0x00000de9fca82a60UL,
  0x000033e9fcc82d03UL, 0x000061e2fcde423cUL, 0x0000cd83fcde2c20UL, 0x0000e06ffce12dbfUL,
  0x00009665fd942493UL, 0x00001ab1fae85364UL, 0x68000042008022a1UL, 0x0500016008000000UL,
  0x0007982068027c00UL, 0x48e36af968070043UL, 0x680c0043000072f1UL, 0x1041104100000000UL,
  0x6000004200802261UL, 0x1500000008000000UL, 0x0007000060027c00UL, 0x0000400060070043UL,
  0x600c004300000020UL, 0x1041104100000000UL, 0x38007c0000802121UL, 0x3802004308880300UL,
  0x0000960034270000UL, 0x00000000380500c3UL, 0x0000000200000000UL, 0x000000240001c200UL,
  0x380c004200100000UL, 0x0000000700000006UL, 0x00000002380d0043UL, 0x381100433428c23fUL,
  0x0000000000000000UL, 0x14007c0000802001UL, 0x1402004308880184UL, 0x000001567049d910UL,
  0x00000000140500c3UL, 0x0000000000000000UL, 0x0000002400000000UL, 0x140c004200100000UL,
  0x0000000700000006UL, 0x00000001140d0043UL, 0x141100437049dd57UL, 0x0000000800000000UL,
  0x18007c0000802021UL, 0x1802004300080100UL, 0x0000e100342e0000UL, 0x00000000180500c3UL,
  0x000000000000e100UL, 0x0000002400000000UL, 0x180c004200100000UL, 0x0000000700000006UL,
  0x00000002180d0043UL, 0x18110043342fc23fUL, 0x0000000000000000UL, 0x24007c0000802081UL,
  0x2402004300080108UL, 0x0000e100342fc200UL, 0x00000000240500c3UL, 0x000000000000e100UL,
  0x0000002400000000UL, 0x240c004200100000UL, 0x0000000700000006UL, 0x00000002240d0043UL,
  0x241100433431843fUL, 0x0000000000000000UL, 0x30007c00008020e1UL, 0x3002012300080008UL,
  0x003c003c34318400UL, 0x0000078000200010UL, 0x0000000200000010UL, 0x000000240001c200UL,
  0x300c004200100000UL, 0x0000000700000006UL, 0x00000002300d0043UL, 0x301100433433463fUL,
  0x0000000000000000UL, 0x0000000210007c00UL, 0x0000006410000424UL, 0x10007c0000000000UL,
  0x10007bc440000000UL, 0x0000000000000064UL, 0x0000000110007c00UL, 0x0000002b10067c00UL,
  0x0000002710097c00UL, 0x00000013100f0043UL, 0x101e7c0000000001UL, 0x10207c0000000017UL,
  0x102400430000002bUL, 0x0000002500000003UL, 0x3000200124002001UL, 0x10d0003540007c00UL,
  0x600020015c002001UL, 0x1400200168002001UL, 0x3800200118002001UL, 0x0000006424007fe4UL,
  0x30007fe400000000UL, 0x0000000000000064UL, 0x0000000010067c00UL, 0x0000000010097c00UL,
  0x00000000100f0043UL, 0x101e7c0000000000UL, 0x10207c0000000000UL, 0x1024004300000000UL,
  0x0000000000000000UL, 0x0000000224007c00UL, 0x0000006424000424UL, 0x24007c0000000000UL,
  0x24007bc440000000UL, 0x0000000000000064UL, 0x30007c0000800081UL, 0x3000042400000002UL,
  0x0000000000000064UL, 0x4000000030007c00UL, 0x0000006430007bc4UL, 0x008000e100000000UL,
  0x0000000240007c00UL, 0x0000006440000424UL, 0x40007c0000000000UL, 0x40007bc440000000UL,
  0x0000000000000064UL, 0x5c007c0000800161UL, 0x5c00042408000002UL, 0x0000000000000064UL,
  0x480000005c007c00UL, 0x000000645c007bc4UL, 0x0080024100000000UL, 0x0800000260007c00UL,
  0x0000006460000424UL, 0x60007c0000000000UL, 0x60007bc448000000UL, 0x0000000000000064UL,
  0x68007c0000800261UL, 0x6800042408000002UL, 0x0000000000000064UL, 0x4800000068007c00UL,
  0x0000006468007bc4UL, 0x008002a100000000UL, 0x0000000214007c00UL, 0x0000006414000424UL,
  0x14007c0000000000UL, 0x14007bc440000000UL, 0x0000000000000064UL, 0x18007c0000800001UL,
  0x1800042400000002UL, 0x0000000000000064UL, 0x4000000018007c00UL, 0x0000006418007bc4UL,
  0x0080002100000000UL, 0x0000000238007c00UL, 0x0000006438000424UL, 0x38007c0000000000UL,
  0x38007bc440000000UL, 0x0000000000000064UL, 0x000003bd00800121UL, 0x44007c0000802181UL,
  0x440200e310d00034UL, 0x0000110010200101UL, 0x003c078010e34303UL, 0x003b0000077f0000UL,
  0x440a7c0000000001UL, 0x440d7c0000000000UL, 0x0080228100000000UL, 0x0800000064000042UL,
  0x64020123156000fcUL, 0x0000000000090000UL, 0x0000e0ff0000000fUL, 0x000000000001c1ffUL,
  0x078403f100000000UL, 0x640c004300000001UL, 0x2042204200000000UL, 0x00000001640b7c00UL,
  0xfc534d2f65000803UL, 0xfdb623a10000a6e2UL, 0xfdd71329000021c6UL, 0x01b422100000ce73UL,
  0xfbf126920000998cUL, 0xfda9173a00002f87UL, 0xff4e132c0000e466UL, 0xfeef1ca7000076c6UL,
  0xff081a4600006a4fUL, 0xfe5311fb0000aba2UL, 0xfeb2228e00003ea3UL, 0xfe5e19780000e4ebUL,
  0xff6e2ed000006c15UL, 0x005824b900000cddUL, 0xfde735c000008d1fUL, 0xffb1198f00003296UL,
  0xfdf7202700000795UL, 0xfe4222a90000ce0aUL, 0xff431bd300000065UL, 0x003f2d2e00005edcUL,
  0xfe4015a200001b52UL, 0xfeb710800000f9c4UL, 0xfe610cb400007f9aUL, 0xfe6d2f6000006ae7UL,
  0xfdc02da80000b732UL, 0xfcc648070000fa38UL, 0xfcd519880000bcb0UL, 0xfe090ddc0000b80fUL,
  0xfddb177b00003e6aUL, 0xfd950d8c0000cbbcUL, 0xfcdc17470000fab0UL, 0xfdfc26ff00001b2bUL,
  0x0080224100000a1cUL, 0x080000005c000042UL, 0x5c027c0015000000UL, 0x5c07004300070000UL,
  0x0000002000004000UL, 0x000000005c0c0043UL, 0x0080204110411041UL, 0x088803001c007c00UL,
  0x343184001c020043UL, 0x1c0500c300009600UL, 0x0000000000000000UL, 0x0001c20000000002UL,
  0x0010000000000024UL, 0x000000061c0c0042UL, 0x1c0d004300000007UL, 0x3433463f00000002UL,
  0x000000001c110043UL, 0x0080210100000000UL, 0x0888018434007c00UL, 0x7049dd2034020043UL,
  0x340500c300000156UL, 0x0000000000000000UL, 0x0000000000000000UL, 0x0010000000000024UL,
  0x00000006340c0042UL, 0x340d004300000007UL, 0x7049e16700000001UL, 0x0000000034110043UL,
  0x008020a100000008UL, 0x0008000828007c00UL, 0x342e000028020123UL, 0x00200010003c003cUL,
  0x0000001000000780UL, 0x0001c20000000002UL, 0x0010000000000024UL, 0x00000006280c0042UL,
  0x280d004300000007UL, 0x342fc23f00000002UL, 0x0000000028110043UL, 0x10007c0000000000UL,
  0x1000042400000002UL, 0x0000000000000064UL, 0x4000000010007c00UL, 0x0000006410007bc4UL,
  0x10007c0000000000UL, 0x10077c0000000001UL, 0x1012004300000025UL, 0x0000001100000005UL,
  0x00000029101e7c00UL, 0x0000001910227c00UL, 0x44007c0028002001UL, 0x5c00200110d00035UL,
  0x1c00200164002001UL, 0x28007fe434002001UL, 0x0000000000000064UL, 0x0000000010077c00UL,
  0x0000000010120043UL, 0x101e7c0000000000UL, 0x10227c0000000000UL, 0x28007c0000000000UL,
  0x2800042400000002UL, 0x0000000000000064UL, 0x4000000028007c00UL, 0x0000006428007bc4UL,
  0x008000a100000000UL, 0x0000000244007c00UL, 0x0000006444000424UL, 0x44007c0000000000UL,
  0x44007bc440000000UL, 0x0000000000000064UL, 0x5c007c0000800181UL, 0x5c00042408000002UL,
  0x0000000000000064UL, 0x480000005c007c00UL, 0x000000645c007bc4UL, 0x0080024100000000UL,
  0x0800000264007c00UL, 0x0000006464000424UL, 0x64007c0000000000UL, 0x64007bc448000000UL,
  0x0000000000000064UL, 0x1c007c0000800281UL, 0x1c00042400000002UL, 0x0000000000000064UL,
  0x400000001c007c00UL, 0x000000641c007bc4UL, 0x0080004100000000UL, 0x0000000234007c00UL,
  0x0000006434000424UL, 0x34007c0000000000UL, 0x34007bc440000000UL, 0x0000000000000064UL,
  0x000003dd00800101UL, 0x48007c00008021a1UL, 0x480200e300100034UL, 0x0000115504040303UL,
  0x003c00f010634202UL, 0x003b000000ef0000UL, 0x480a7c0000000001UL, 0x480d7c0000000000UL,
  0x0080226100000000UL, 0x0800000060000042UL, 0x60020123156000fcUL, 0x0000000000088000UL,
  0x0000383f00000003UL, 0x000000000001c1ffUL, 0x078403fd00000000UL, 0x600c004300000001UL,
  0x2042204200000000UL, 0x00000001600b7c00UL, 0xfef90f4461000803UL, 0xfeba165b000096d6UL,
  0xfefa347f00004531UL, 0xfefa130b0000697eUL, 0xfebe0fb40000ae4cUL, 0xfeb40ede00004591UL,
  0xffa311050000317fUL, 0xfebc15010000522dUL, 0xff15153c000099efUL, 0xfe9a1d8f0000d055UL,
  0xfee3126600002895UL, 0xff151f9b00008af9UL, 0xfee51ea500008307UL, 0xff930d7b0000d025UL,
  0xfef70e43000056dfUL, 0xff0516830000cf9cUL, 0xfef72f92000024fbUL, 0xff5b14310000977fUL,
  0xfecf15c20000ce05UL, 0xffa911e40000e446UL, 0xfeec406500008ed6UL, 0xff132620000091a7UL,
  0xff1648930000a87fUL, 0xfefe11da00006574UL, 0xfea910e20000a861UL, 0xff5c074b0000a5a3UL,
  0xfeeb164900007db2UL, 0xfee8371d000026f5UL, 0xff3d139c00006ce2UL, 0xff352eff00008bbcUL,
  0xff800b870000be34UL, 0xfefd255200003919UL, 0x008022a100003195UL, 0x0800000068000042UL,
  0x68027c0015000000UL, 0x6807004300070000UL, 0x0000002000004000UL, 0x00000000680c0043UL,
